<unk>	0
<s>	0
</s>	0
▁t	-0
▁a	-1
he	-2
in	-3
▁the	-4
▁s	-5
re	-6
▁w	-7
▁o	-8
is	-9
er	-10
nd	-11
▁f	-12
▁m	-13
▁b	-14
it	-15
at	-16
ing	-17
▁c	-18
en	-19
es	-20
or	-21
ou	-22
▁th	-23
on	-24
▁h	-25
ll	-26
▁of	-27
▁and	-28
an	-29
▁to	-30
▁p	-31
ar	-32
▁d	-33
ed	-34
as	-35
▁in	-36
▁l	-37
▁I	-38
om	-39
▁is	-40
br	-41
ic	-42
▁g	-43
▁/	-44
▁/>	-45
le	-46
▁e	-47
ot	-48
▁n	-49
al	-50
ut	-51
st	-52
ct	-53
il	-54
▁it	-55
▁be	-56
▁T	-57
ve	-58
ie	-59
▁mo	-60
ly	-61
▁re	-62
▁on	-63
▁that	-64
ow	-65
ver	-66
ad	-67
ent	-68
▁he	-69
▁this	-70
ion	-71
im	-72
ay	-73
▁wh	-74
se	-75
▁st	-76
et	-77
gh	-78
id	-79
ch	-80
▁was	-81
▁mov	-82
▁y	-83
▁/><	-84
ith	-85
ilm	-86
all	-87
▁film	-88
▁for	-89
oo	-90
▁A	-91
▁as	-92
▁u	-93
ce	-94
▁with	-95
▁an	-96
▁S	-97
ke	-98
am	-99
ld	-100
▁se	-101
▁The	-102
▁movie	-103
ir	-104
ro	-105
▁you	-106
▁ha	-107
ri	-108
.<	-109
▁B	-110
her	-111
ur	-112
▁li	-113
▁M	-114
▁but	-115
ra	-116
▁not	-117
▁we	-118
ally	-119
ill	-120
ter	-121
▁(	-122
▁C	-123
▁"	-124
▁H	-125
ck	-126
▁are	-127
▁sh	-128
ome	-129
▁his	-130
▁W	-131
▁ch	-132
pe	-133
ers	-134
▁at	-135
ould	-136
ul	-137
▁have	-138
▁D	-139
ght	-140
if	-141
ust	-142
un	-143
em	-144
▁j	-145
▁su	-146
▁fr	-147
▁sc	-148
out	-149
▁act	-150
▁do	-151
ble	-152
ain	-153
▁ex	-154
▁one	-155
ess	-156
▁who	-157
▁k	-158
el	-159
▁so	-160
very	-161
act	-162
▁pl	-163
▁com	-164
ood	-165
▁all	-166
ant	-167
▁ab	-168
ies	-169
art	-170
pp	-171
ak	-172
us	-173
▁al	-174
▁by	-175
ag	-176
▁v	-177
ol	-178
est	-179
th	-180
op	-181
ous	-182
▁P	-183
▁de	-184
ist	-185
▁R	-186
▁L	-187
and	-188
▁wor	-189
▁from	-190
▁F	-191
▁they	-192
▁like	-193
one	-194
▁ne	-195
▁out	-196
ast	-197
ven	-198
▁r	-199
▁whe	-200
▁some	-201
▁int	-202
▁or	-203
qu	-204
ation	-205
▁J	-206
fe	-207
▁G	-208
▁con	-209
um	-210
red	-211
ough	-212
au	-213
▁Th	-214
▁her	-215
▁It	-216
ate	-217
▁me	-218
▁just	-219
▁about	-220
▁has	-221
res	-222
os	-223
ich	-224
ind	-225
ard	-226
▁N	-227
▁pro	-228
ive	-229
..	-230
ory	-231
ack	-232
▁char	-233
▁can	-234
ort	-235
pt	-236
▁tim	-237
▁E	-238
▁un	-239
ig	-240
ud	-241
ook	-242
ire	-243
ake	-244
reat	-245
▁O	-246
▁le	-247
▁charact	-248
ight	-249
▁good	-250
▁any	-251
▁wat	-252
▁man	-253
▁lo	-254
ong	-255
▁up	-256
▁tr	-257
▁more	-258
▁get	-259
▁go	-260
▁no	-261
▁see	-262
▁would	-263
ity	-264
ound	-265
▁fe	-266
▁very	-267
The	-268
▁what	-269
▁my	-270
ther	-271
▁there	-272
ame	-273
ite	-274
ge	-275
nt	-276
▁This	-277
ide	-278
▁bec	-279
able	-280
▁story	-281
▁time	-282
od	-283
▁when	-284
▁1	-285
▁she	-286
▁en	-287
ore	-288
▁-	-289
hing	-290
▁scen	-291
▁were	-292
▁had	-293
▁really	-294
oy	-295
▁if	-296
ure	-297
▁their	-298
▁watch	-299
ell	-300
▁show	-301
▁only	-302
ci	-303
▁him	-304
itt	-305
ab	-306
▁even	-307
▁K	-308
▁other	-309
ink	-310
ick	-311
pl	-312
▁per	-313
▁which	-314
so	-315
▁cl	-316
▁them	-317
our	-318
▁kn	-319
ine	-320
man	-321
▁did	-322
▁than	-323
ond	-324
ment	-325
og	-326
te	-327
uch	-328
ious	-329
ars	-330
ays	-331
are	-332
▁end	-333
▁does	-334
ap	-335
ade	-336
ves	-337
ause	-338
▁pe	-339
...	-340
▁great	-341
ice	-342
▁look	-343
▁much	-344
ue	-345
▁bad	-346
▁bet	-347
▁qu	-348
▁ar	-349
ac	-350
▁been	-351
▁could	-352
irect	-353
ople	-354
▁im	-355
ert	-356
▁will	-357
irst	-358
▁how	-359
ple	-360
▁po	-361
ence	-362
▁over	-363
lf	-364
▁into	-365
▁well	-366
ne	-367
▁pre	-368
▁most	-369
▁know	-370
ass	-371
ry	-372
▁people	-373
int	-374
▁think	-375
ose	-376
▁ro	-377
▁tw	-378
other	-379
for	-380
▁dis	-381
▁because	-382
▁too	-383
▁ad	-384
age	-385
▁us	-386
ff	-387
per	-388
▁every	-389
fter	-390
av	-391
▁ag	-392
ors	-393
ful	-394
▁real	-395
▁am	-396
▁make	-397
▁off	-398
▁direct	-399
ish	-400
▁part	-401
▁thing	-402
▁first	-403
▁made	-404
ull	-405
ile	-406
ny	-407
▁fun	-408
aw	-409
▁way	-410
ict	-411
▁also	-412
ty	-413
ere	-414
oll	-415
ost	-416
▁don	-417
▁'	-418
▁movies	-419
akes	-420
▁seem	-421
ian	-422
▁thr	-423
▁wr	-424
ary	-425
own	-426
▁character	-427
▁its	-428
ated	-429
▁gu	-430
ep	-431
ical	-432
gin	-433
▁sp	-434
iew	-435
▁characters	-436
▁bl	-437
ace	-438
ob	-439
ress	-440
▁work	-441
▁Y	-442
ually	-443
ng	-444
▁Ch	-445
▁te	-446
▁And	-447
fect	-448
▁fl	-449
hed	-450
▁films	-451
cc	-452
ial	-453
pect	-454
▁play	-455
▁seen	-456
iz	-457
▁V	-458
▁plot	-459
self	-460
▁then	-461
ving	-462
▁your	-463
▁want	-464
ces	-465
omet	-466
▁ye	-467
▁being	-468
▁But	-469
▁Wh	-470
▁aw	-471
ance	-472
),	-473
▁ser	-474
▁love	-475
▁In	-476
▁many	-477
▁say	-478
ittle	-479
▁after	-480
ang	-481
▁two	-482
get	-483
▁never	-484
nder	-485
▁acting	-486
▁He	-487
).	-488
ans	-489
ens	-490
urn	-491
mer	-492
▁<	-493
▁where	-494
ip	-495
ark	-496
▁ent	-497
▁through	-498
ved	-499
▁back	-500
▁life	-501
ach	-502
▁best	-503
▁little	-504
▁somet	-505
▁rem	-506
▁ever	-507
▁hor	-508
ult	-509
▁rec	-510
ild	-511
ily	-512
ather	-513
ber	-514
▁des	-515
▁better	-516
du	-517
we	-518
▁br	-519
ise	-520
vel	-521
wn	-522
ions	-523
ual	-524
▁St	-525
▁scene	-526
ru	-527
▁find	-528
thing	-529
▁perfor	-530
be	-531
ought	-532
▁spe	-533
rap	-534
▁should	-535
aking	-536
▁sl	-537
vers	-538
▁scenes	-539
▁i	-540
▁pr	-541
ase	-542
▁cont	-543
iend	-544
ertain	-545
▁U	-546
▁feel	-547
▁min	-548
less	-549
▁There	-550
▁2	-551
▁under	-552
▁att	-553
▁gr	-554
me	-555
lie	-556
ath	-557
augh	-558
▁again	-559
ting	-560
▁ri	-561
ents	-562
ever	-563
▁still	-564
▁here	-565
ree	-566
erest	-567
ia	-568
les	-569
igh	-570
ning	-571
ren	-572
fore	-573
▁kill	-574
▁something	-575
▁inc	-576
ably	-577
ense	-578
▁19	-579
▁interest	-580
▁such	-581
ating	-582
▁happ	-583
▁imp	-584
▁these	-585
▁lot	-586
▁may	-587
ations	-588
ave	-589
▁cr	-590
arly	-591
ason	-592
ail	-593
▁hum	-594
alk	-595
▁sur	-596
▁old	-597
▁performan	-598
reen	-599
▁Al	-600
▁gi	-601
▁cast	-602
ror	-603
the	-604
up	-605
ater	-606
ock	-607
oth	-608
▁point	-609
ect	-610
iv	-611
▁doesn	-612
▁If	-613
▁mus	-614
▁those	-615
▁actors	-616
▁watching	-617
▁ap	-618
▁fam	-619
▁didn	-620
joy	-621
▁dec	-622
ying	-623
▁res	-624
▁ra	-625
▁sim	-626
▁che	-627
▁guy	-628
▁years	-629
▁wom	-630
▁funny	-631
▁gir	-632
▁cou	-633
▁gen	-634
ffect	-635
▁enjoy	-636
▁view	-637
▁set	-638
▁tra	-639
▁makes	-640
▁start	-641
▁belie	-642
▁fact	-643
ute	-644
erson	-645
▁down	-646
edy	-647
▁going	-648
ool	-649
▁comp	-650
▁same	-651
az	-652
▁ob	-653
iss	-654
▁actually	-655
oc	-656
▁few	-657
▁before	-658
oss	-659
▁fin	-660
old	-661
▁em	-662
▁long	-663
▁sub	-664
▁ev	-665
wh	-666
der	-667
ale	-668
▁pret	-669
▁produ	-670
ience	-671
ft	-672
cial	-673
▁while	-674
▁young	-675
▁got	-676
▁thought	-677
▁now	-678
▁ter	-679
▁why	-680
rigin	-681
▁dif	-682
▁own	-683
ction	-684
li	-685
▁director	-686
▁big	-687
▁ke	-688
▁bit	-689
ons	-690
▁tri	-691
▁though	-692
ript	-693
▁exce	-694
▁turn	-695
▁Jo	-696
ub	-697
▁supp	-698
hen	-699
▁nothing	-700
hy	-701
▁origin	-702
ible	-703
ram	-704
▁another	-705
aut	-706
▁new	-707
▁sm	-708
ings	-709
▁friend	-710
ince	-711
▁comple	-712
▁rel	-713
▁&	-714
iting	-715
▁effect	-716
▁girl	-717
▁inv	-718
▁around	-719
rent	-720
▁quite	-721
▁seems	-722
!!	-723
▁things	-724
onder	-725
▁pretty	-726
Th	-727
▁app	-728
▁As	-729
▁screen	-730
▁enough	-731
meric	-732
air	-733
ew	-734
ign	-735
ched	-736
ically	-737
ib	-738
most	-739
▁laugh	-740
▁need	-741
▁right	-742
ways	-743
ris	-744
--	-745
ween	-746
ness	-747
▁script	-748
ank	-749
▁hard	-750
▁far	-751
▁world	-752
▁acc	-753
▁kid	-754
▁str	-755
▁original	-756
▁high	-757
▁She	-758
ately	-759
▁take	-760
▁person	-761
app	-762
ster	-763
ead	-764
▁between	-765
▁ins	-766
ced	-767
▁kind	-768
ention	-769
▁must	-770
▁appe	-771
rill	-772
inem	-773
▁op	-774
▁music	-775
▁Br	-776
▁give	-777
▁horror	-778
▁es	-779
hes	-780
utes	-781
▁wonder	-782
▁You	-783
▁role	-784
▁reason	-785
ward	-786
▁sec	-787
",	-788
ord	-789
vious	-790
ash	-791
▁gets	-792
▁isn	-793
its	-794
▁saw	-795
▁times	-796
▁put	-797
▁mom	-798
▁tell	-799
▁always	-800
▁whole	-801
▁series	-802
▁bu	-803
▁action	-804
▁Americ	-805
aid	-806
▁sex	-807
▁least	-808
ased	-809
icul	-810
▁hel	-811
▁interesting	-812
▁main	-813
▁How	-814
ody	-815
▁They	-816
oot	-817
▁comedy	-818
▁come	-819
▁10	-820
▁read	-821
▁child	-822
here	-823
▁lead	-824
▁beaut	-825
▁sound	-826
▁done	-827
▁class	-828
▁ep	-829
ife	-830
▁both	-831
ner	-832
▁without	-833
▁expect	-834
arr	-835
▁almost	-836
▁ide	-837
▁cons	-838
▁shot	-839
▁Sh	-840
▁might	-841
▁minutes	-842
ully	-843
▁cam	-844
view	-845
gg	-846
▁cinem	-847
hn	-848
rible	-849
▁hand	-850
▁diffe	-851
▁worth	-852
▁aud	-853
xt	-854
▁complete	-855
ines	-856
bably	-857
▁expl	-858
ouse	-859
uring	-860
de	-861
▁co	-862
▁anything	-863
▁last	-864
ime	-865
▁performance	-866
stand	-867
▁begin	-868
▁book	-869
▁care	-870
though	-871
son	-872
ane	-873
▁inst	-874
▁cle	-875
▁family	-876
▁cour	-877
▁help	-878
▁An	-879
cially	-880
▁3	-881
".	-882
▁Fr	-883
ism	-884
▁entertain	-885
ov	-886
▁war	-887
▁since	-888
▁el	-889
▁TV	-890
▁call	-891
▁found	-892
era	-893
▁away	-894
ograp	-895
ialog	-896
mend	-897
oney	-898
▁ext	-899
▁car	-900
istic	-901
▁sequ	-902
ures	-903
ative	-904
▁probably	-905
▁art	-906
▁dialog	-907
atch	-908
ition	-909
ange	-910
ros	-911
▁run	-912
▁bo	-913
▁woman	-914
ER	-915
▁What	-916
▁sure	-917
This	-918
als	-919
VD	-920
aster	-921
ret	-922
ject	-923
ah	-924
▁let	-925
co	-926
pecially	-927
▁rather	-928
isod	-929
ling	-930
apt	-931
▁add	-932
led	-933
."	-934
uck	-935
oint	-936
▁worst	-937
ten	-938
▁Be	-939
wood	-940
▁happen	-941
▁abs	-942
▁DVD	-943
osed	-944
▁lik	-945
▁making	-946
▁our	-947
▁mean	-948
▁vers	-949
ither	-950
▁surp	-951
▁course	-952
alf	-953
▁keep	-954
▁anyone	-955
▁poor	-956
▁episod	-957
▁Se	-958
▁believe	-959
ont	-960
▁each	-961
▁trying	-962
ok	-963
ollow	-964
▁John	-965
olly	-966
▁different	-967
▁So	-968
▁beautif	-969
▁mind	-970
ates	-971
▁De	-972
▁bor	-973
▁del	-974
▁comes	-975
ady	-976
▁job	-977
▁We	-978
ommend	-979
blem	-980
▁cre	-981
▁inter	-982
umb	-983
ingly	-984
▁That	-985
▁place	-986
▁sense	-987
▁ending	-988
▁shows	-989
hip	-990
▁goes	-991
▁played	-992
fin	-993
▁rest	-994
ments	-995
**	-996
iter	-997
▁ty	-998
▁boy	-999
▁pol	-1000
ney	-1001
atter	-1002
▁Not	-1003
▁less	-1004
00	-1005
ics	-1006
▁yet	-1007
rist	-1008
empt	-1009
dd	-1010
iece	-1011
▁day	-1012
▁short	-1013
▁problem	-1014
ope	-1015
▁perfect	-1016
▁ac	-1017
▁stand	-1018
ray	-1019
▁pres	-1020
ph	-1021
ality	-1022
ks	-1023
arent	-1024
ilar	-1025
▁mem	-1026
▁watched	-1027
▁recommend	-1028
lud	-1029
▁wasn	-1030
▁fan	-1031
▁creat	-1032
It	-1033
▁effects	-1034
▁looks	-1035
▁looking	-1036
▁port	-1037
▁super	-1038
▁money	-1039
aps	-1040
ortun	-1041
▁actor	-1042
ower	-1043
ream	-1044
ann	-1045
sp	-1046
▁gl	-1047
▁conf	-1048
▁half	-1049
way	-1050
▁Re	-1051
▁TH	-1052
▁dram	-1053
▁Le	-1054
ident	-1055
io	-1056
▁sit	-1057
▁follow	-1058
▁For	-1059
▁plays	-1060
▁certain	-1061
gether	-1062
▁together	-1063
▁fav	-1064
▁audience	-1065
▁head	-1066
▁miss	-1067
sc	-1068
ied	-1069
▁said	-1070
llent	-1071
▁understand	-1072
arn	-1073
land	-1074
▁someone	-1075
▁dep	-1076
▁else	-1077
▁having	-1078
ues	-1079
▁takes	-1080
▁review	-1081
▁When	-1082
▁second	-1083
▁himself	-1084
▁talk	-1085
▁imag	-1086
▁mon	-1087
▁three	-1088
▁poss	-1089
▁nice	-1090
▁left	-1091
▁ed	-1092
▁true	-1093
▁rele	-1094
▁Bl	-1095
▁All	-1096
ames	-1097
not	-1098
udget	-1099
day	-1100
▁version	-1101
cept	-1102
ollywood	-1103
▁special	-1104
▁night	-1105
ex	-1106
ature	-1107
ix	-1108
10	-1109
upid	-1110
▁friends	-1111
▁especially	-1112
▁idea	-1113
atic	-1114
▁vis	-1115
▁fall	-1116
ited	-1117
▁American	-1118
cing	-1119
ists	-1120
uff	-1121
sy	-1122
ply	-1123
▁comm	-1124
▁use	-1125
▁ph	-1126
ional	-1127
▁came	-1128
▁entire	-1129
▁everything	-1130
ross	-1131
▁obvious	-1132
ted	-1133
ier	-1134
▁sch	-1135
ired	-1136
▁hour	-1137
▁invol	-1138
▁beautiful	-1139
▁ey	-1140
0'	-1141
ared	-1142
▁seeing	-1143
▁det	-1144
▁wife	-1145
▁excellent	-1146
▁sing	-1147
▁dist	-1148
ides	-1149
▁mur	-1150
▁sk	-1151
att	-1152
▁tot	-1153
▁during	-1154
ien	-1155
▁Sp	-1156
▁Rob	-1157
▁Un	-1158
▁home	-1159
▁everyone	-1160
▁later	-1161
fully	-1162
▁exc	-1163
▁stupid	-1164
▁ele	-1165
▁lack	-1166
appoint	-1167
▁men	-1168
ount	-1169
my	-1170
▁Sc	-1171
▁attempt	-1172
▁year	-1173
▁exper	-1174
ird	-1175
▁tal	-1176
▁used	-1177
▁low	-1178
▁once	-1179
▁remem	-1180
omb	-1181
▁completely	-1182
ery	-1183
amp	-1184
ins	-1185
like	-1186
▁mar	-1187
▁father	-1188
▁disappoint	-1189
▁death	-1190
▁My	-1191
olute	-1192
▁fight	-1193
▁ass	-1194
▁hist	-1195
▁unt	-1196
▁top	-1197
ains	-1198
▁open	-1199
orn	-1200
yle	-1201
▁One	-1202
▁simply	-1203
▁--	-1204
▁Ste	-1205
▁Cl	-1206
▁human	-1207
iol	-1208
▁At	-1209
▁serious	-1210
▁rep	-1211
▁4	-1212
ove	-1213
▁Ar	-1214
ract	-1215
▁cop	-1216
▁beh	-1217
▁word	-1218
▁exp	-1219
▁anim	-1220
but	-1221
▁loc	-1222
▁stud	-1223
ork	-1224
▁ret	-1225
▁defin	-1226
▁wrong	-1227
aring	-1228
▁song	-1229
▁tit	-1230
ets	-1231
ography	-1232
▁sy	-1233
▁includ	-1234
▁gener	-1235
▁emot	-1236
▁Hollywood	-1237
orm	-1238
▁along	-1239
ott	-1240
▁cra	-1241
ideo	-1242
▁mess	-1243
▁pict	-1244
▁heart	-1245
▁Mar	-1246
▁performances	-1247
....	-1248
▁supposed	-1249
▁try	-1250
▁either	-1251
▁camera	-1252
▁gra	-1253
itten	-1254
▁absolute	-1255
▁boring	-1256
uly	-1257
▁fail	-1258
▁dra	-1259
▁kids	-1260
ider	-1261
idd	-1262
▁line	-1263
vin	-1264
▁black	-1265
▁count	-1266
▁eas	-1267
fic	-1268
▁couple	-1269
▁school	-1270
/10	-1271
ote	-1272
▁8	-1273
gr	-1274
▁production	-1275
▁small	-1276
ax	-1277
▁Christ	-1278
▁exam	-1279
▁pass	-1280
elt	-1281
▁classic	-1282
oice	-1283
▁ind	-1284
▁surpris	-1285
▁bas	-1286
▁However	-1287
uth	-1288
▁hope	-1289
▁given	-1290
vis	-1291
haps	-1292
▁women	-1293
com	-1294
▁becom	-1295
▁budget	-1296
iant	-1297
▁5	-1298
med	-1299
▁conc	-1300
▁sort	-1301
▁favor	-1302
oon	-1303
itely	-1304
▁particul	-1305
▁until	-1306
▁light	-1307
▁humor	-1308
▁truly	-1309
▁rom	-1310
▁flick	-1311
▁sad	-1312
▁cred	-1313
▁portray	-1314
▁won	-1315
ities	-1316
▁house	-1317
▁moments	-1318
▁hero	-1319
ize	-1320
▁name	-1321
▁viol	-1322
▁itself	-1323
▁full	-1324
▁star	-1325
sel	-1326
play	-1327
velop	-1328
▁ple	-1329
fortun	-1330
IN	-1331
▁getting	-1332
▁No	-1333
iness	-1334
▁Well	-1335
▁amaz	-1336
ton	-1337
▁awful	-1338
▁instead	-1339
que	-1340
▁pain	-1341
ows	-1342
ike	-1343
▁remember	-1344
ility	-1345
aj	-1346
▁next	-1347
tern	-1348
cess	-1349
ently	-1350
ric	-1351
▁terrible	-1352
▁Car	-1353
▁Man	-1354
reak	-1355
▁except	-1356
▁gives	-1357
▁guess	-1358
▁doing	-1359
▁mother	-1360
▁wa	-1361
▁episode	-1362
▁coll	-1363
▁playing	-1364
▁On	-1365
cy	-1366
▁dri	-1367
▁talent	-1368
ories	-1369
ug	-1370
▁reg	-1371
▁lines	-1372
▁face	-1373
▁Mr	-1374
itch	-1375
▁7	-1376
▁dialogue	-1377
▁however	-1378
reme	-1379
ister	-1380
▁wonderful	-1381
▁THE	-1382
ps	-1383
▁others	-1384
▁video	-1385
illy	-1386
▁often	-1387
ony	-1388
ument	-1389
,"	-1390
▁couldn	-1391
imes	-1392
▁Don	-1393
▁piece	-1394
▁went	-1395
ger	-1396
▁form	-1397
▁dead	-1398
▁cor	-1399
▁slow	-1400
▁cut	-1401
▁power	-1402
▁become	-1403
▁9	-1404
▁brill	-1405
▁impress	-1406
▁early	-1407
▁Jack	-1408
▁liked	-1409
vent	-1410
▁ann	-1411
▁.	-1412
ured	-1413
aughter	-1414
olog	-1415
ming	-1416
▁quest	-1417
ized	-1418
▁develop	-1419
▁entertaining	-1420
ibly	-1421
▁close	-1422
▁case	-1423
▁live	-1424
yn	-1425
line	-1426
▁Will	-1427
▁maybe	-1428
▁ref	-1429
enn	-1430
▁mention	-1431
right	-1432
▁felt	-1433
oid	-1434
▁children	-1435
ael	-1436
▁style	-1437
het	-1438
▁stars	-1439
body	-1440
▁relations	-1441
▁matter	-1442
ler	-1443
▁strong	-1444
used	-1445
▁trans	-1446
lish	-1447
▁absolutely	-1448
▁dark	-1449
▁z	-1450
ley	-1451
▁actress	-1452
▁worse	-1453
▁rent	-1454
▁title	-1455
und	-1456
▁rid	-1457
▁beginning	-1458
ccess	-1459
In	-1460
▁After	-1461
oub	-1462
▁guys	-1463
ular	-1464
▁waste	-1465
pite	-1466
uss	-1467
▁definitely	-1468
▁mis	-1469
▁side	-1470
riend	-1471
▁certainly	-1472
ined	-1473
▁Even	-1474
▁written	-1475
▁against	-1476
by	-1477
ific	-1478
▁seemed	-1479
▁extreme	-1480
▁Dav	-1481
ready	-1482
▁fant	-1483
Wh	-1484
selves	-1485
▁His	-1486
▁loved	-1487
unch	-1488
▁sever	-1489
pped	-1490
▁past	-1491
ts	-1492
ape	-1493
▁cinema	-1494
▁brilliant	-1495
▁wanted	-1496
▁Some	-1497
▁New	-1498
▁several	-1499
unk	-1500
atur	-1501
ichael	-1502
ison	-1503
▁picture	-1504
▁pop	-1505
▁To	-1506
▁sw	-1507
▁becomes	-1508
fortunately	-1509
▁pred	-1510
▁already	-1511
▁relationship	-1512
▁example	-1513
▁Eng	-1514
ung	-1515
▁success	-1516
▁drama	-1517
▁totally	-1518
▁adm	-1519
vable	-1520
aken	-1521
▁master	-1522
osp	-1523
▁blood	-1524
▁Is	-1525
▁thrill	-1526
▁able	-1527
▁lives	-1528
▁dem	-1529
gu	-1530
▁direction	-1531
▁game	-1532
▁Har	-1533
▁fans	-1534
rew	-1535
▁par	-1536
ief	-1537
▁called	-1538
▁although	-1539
iam	-1540
▁et	-1541
ided	-1542
▁pur	-1543
▁prov	-1544
▁deal	-1545
▁support	-1546
▁stuff	-1547
▁grou	-1548
▁av	-1549
▁Mc	-1550
▁fine	-1551
▁tou	-1552
ches	-1553
▁capt	-1554
▁walk	-1555
▁cent	-1556
▁quality	-1557
sh	-1558
▁self	-1559
▁wants	-1560
▁brother	-1561
▁town	-1562
!<	-1563
▁doc	-1564
▁deser	-1565
ried	-1566
aving	-1567
).<	-1568
oke	-1569
ages	-1570
▁comment	-1571
▁mor	-1572
what	-1573
▁based	-1574
▁list	-1575
use	-1576
▁eff	-1577
▁Char	-1578
▁works	-1579
▁throughout	-1580
▁bra	-1581
▁lost	-1582
where	-1583
▁writing	-1584
▁daughter	-1585
oil	-1586
orge	-1587
▁annoy	-1588
▁occ	-1589
▁situ	-1590
▁val	-1591
▁vill	-1592
▁tries	-1593
OT	-1594
chn	-1595
amed	-1596
off	-1597
sych	-1598
▁sn	-1599
▁viewer	-1600
using	-1601
▁history	-1602
▁pat	-1603
▁enjoyed	-1604
▁son	-1605
to	-1606
▁present	-1607
▁import	-1608
▁gave	-1609
▁With	-1610
▁med	-1611
ination	-1612
▁num	-1613
▁susp	-1614
▁fair	-1615
▁final	-1616
ene	-1617
▁mag	-1618
▁sat	-1619
rib	-1620
▁dr	-1621
ient	-1622
▁hon	-1623
ms	-1624
ik	-1625
▁learn	-1626
ude	-1627
▁turns	-1628
▁fem	-1629
▁crit	-1630
▁parts	-1631
▁appear	-1632
ovie	-1633
19	-1634
▁amazing	-1635
▁etc	-1636
▁novel	-1637
▁stra	-1638
ern	-1639
rodu	-1640
▁today	-1641
arth	-1642
▁themselves	-1643
▁finally	-1644
▁col	-1645
▁days	-1646
▁favorite	-1647
▁teen	-1648
▁inf	-1649
▁Michael	-1650
▁genre	-1651
▁prom	-1652
ox	-1653
ished	-1654
ajor	-1655
itive	-1656
▁horrible	-1657
▁contin	-1658
▁cult	-1659
▁foot	-1660
▁late	-1661
▁level	-1662
▁shoot	-1663
▁moment	-1664
▁hilar	-1665
▁group	-1666
▁feat	-1667
tra	-1668
▁starts	-1669
▁exact	-1670
ards	-1671
rop	-1672
▁Then	-1673
▁myself	-1674
▁behind	-1675
▁document	-1676
▁ir	-1677
▁Robert	-1678
▁fig	-1679
yp	-1680
▁,	-1681
▁killed	-1682
okes	-1683
▁ask	-1684
ec	-1685
▁stop	-1686
There	-1687
▁killer	-1688
▁Ger	-1689
▁Ed	-1690
▁typ	-1691
▁consider	-1692
▁pick	-1693
▁Ge	-1694
▁says	-1695
ats	-1696
▁myster	-1697
▁opp	-1698
▁cost	-1699
iculous	-1700
▁deli	-1701
astic	-1702
▁Her	-1703
▁effort	-1704
▁incred	-1705
▁thinking	-1706
arb	-1707
▁Also	-1708
▁eyes	-1709
els	-1710
▁took	-1711
eth	-1712
band	-1713
ese	-1714
akers	-1715
▁Why	-1716
▁Just	-1717
▁decent	-1718
▁happens	-1719
▁Of	-1720
▁mot	-1721
ump	-1722
antly	-1723
▁heard	-1724
ior	-1725
▁While	-1726
▁Dan	-1727
▁bus	-1728
If	-1729
▁voice	-1730
▁experience	-1731
▁intell	-1732
AN	-1733
urt	-1734
▁fa	-1735
▁hilarious	-1736
uge	-1737
ys	-1738
▁fore	-1739
▁const	-1740
▁evil	-1741
▁murder	-1742
ives	-1743
▁feeling	-1744
▁Brit	-1745
▁type	-1746
usband	-1747
▁soon	-1748
▁cinemat	-1749
na	-1750
owing	-1751
uc	-1752
▁War	-1753
▁girls	-1754
▁perhaps	-1755
▁May	-1756
▁non	-1757
▁tele	-1758
gs	-1759
ences	-1760
ST	-1761
AT	-1762
▁psych	-1763
.)	-1764
aul	-1765
▁chang	-1766
▁ste	-1767
▁major	-1768
▁prof	-1769
▁involved	-1770
▁ridiculous	-1771
▁roles	-1772
▁stru	-1773
▁directed	-1774
side	-1775
ek	-1776
▁Every	-1777
ters	-1778
ering	-1779
▁opin	-1780
▁sle	-1781
▁cannot	-1782
antic	-1783
▁told	-1784
ances	-1785
▁Ke	-1786
▁hold	-1787
▁God	-1788
▁Ind	-1789
▁stories	-1790
▁hit	-1791
ator	-1792
▁esc	-1793
▁room	-1794
zy	-1795
▁chance	-1796
▁predict	-1797
aves	-1798
▁cheap	-1799
▁sol	-1800
▁looked	-1801
▁score	-1802
▁extremely	-1803
▁white	-1804
ians	-1805
ement	-1806
▁Gr	-1807
▁Now	-1808
▁result	-1809
▁disco	-1810
ots	-1811
anger	-1812
▁husband	-1813
▁win	-1814
▁crap	-1815
▁leave	-1816
aced	-1817
▁uni	-1818
▁move	-1819
how	-1820
▁ago	-1821
iddle	-1822
nded	-1823
▁dream	-1824
▁stre	-1825
urb	-1826
▁quick	-1827
▁happened	-1828
▁wouldn	-1829
▁shown	-1830
▁cool	-1831
▁violence	-1832
▁weak	-1833
▁coming	-1834
▁Pl	-1835
▁bring	-1836
rench	-1837
aces	-1838
dy	-1839
LL	-1840
▁Me	-1841
▁event	-1842
▁6	-1843
▁swe	-1844
OR	-1845
ones	-1846
▁ant	-1847
▁simple	-1848
ON	-1849
▁shock	-1850
vol	-1851
▁techn	-1852
ational	-1853
vision	-1854
ution	-1855
▁Or	-1856
▁taken	-1857
cer	-1858
▁musical	-1859
▁desc	-1860
▁subject	-1861
iet	-1862
▁pos	-1863
▁English	-1864
ron	-1865
che	-1866
▁age	-1867
cks	-1868
any	-1869
aged	-1870
gan	-1871
mb	-1872
▁200	-1873
▁break	-1874
nds	-1875
AR	-1876
▁known	-1877
▁country	-1878
mp	-1879
rest	-1880
ole	-1881
wards	-1882
iety	-1883
▁var	-1884
▁across	-1885
▁obviously	-1886
▁career	-1887
▁polit	-1888
rit	-1889
▁return	-1890
▁Pet	-1891
ury	-1892
ground	-1893
itting	-1894
!!!	-1895
pping	-1896
▁highly	-1897
▁stay	-1898
But	-1899
ield	-1900
...<	-1901
▁inde	-1902
▁huge	-1903
▁opening	-1904
▁apparent	-1905
▁phot	-1906
▁David	-1907
▁released	-1908
▁comed	-1909
▁saying	-1910
And	-1911
▁four	-1912
▁ang	-1913
▁exactly	-1914
▁jokes	-1915
ral	-1916
▁yourself	-1917
▁Pe	-1918
▁foc	-1919
▁Con	-1920
▁suspense	-1921
▁hours	-1922
▁dev	-1923
▁doub	-1924
▁annoying	-1925
▁body	-1926
ctor	-1927
▁lar	-1928
▁fut	-1929
▁build	-1930
▁deep	-1931
▁particularly	-1932
rence	-1933
ered	-1934
▁James	-1935
▁order	-1936
ubl	-1937
▁similar	-1938
▁opinion	-1939
ina	-1940
▁gun	-1941
▁disc	-1942
▁reality	-1943
▁(19	-1944
omp	-1945
ball	-1946
enty	-1947
▁sometimes	-1948
real	-1949
ili	-1950
▁pay	-1951
▁cinematography	-1952
outh	-1953
▁prem	-1954
▁shots	-1955
▁started	-1956
▁writer	-1957
▁strange	-1958
▁possible	-1959
oul	-1960
▁number	-1961
▁ones	-1962
▁Do	-1963
iction	-1964
yond	-1965
▁ends	-1966
▁pull	-1967
▁dest	-1968
▁treat	-1969
hetic	-1970
▁gore	-1971
▁Per	-1972
▁ill	-1973
ential	-1974
▁documentary	-1975
read	-1976
bel	-1977
▁Am	-1978
aim	-1979
▁subt	-1980
eng	-1981
▁near	-1982
▁save	-1983
▁change	-1984
▁hot	-1985
ino	-1986
estern	-1987
▁honest	-1988
▁forget	-1989
▁police	-1990
▁narr	-1991
ma	-1992
▁fill	-1993
▁wish	-1994
▁disappointed	-1995
▁whose	-1996
▁moder	-1997
▁filmm	-1998
▁usual	-1999
▁important	-2000
▁alone	-2001
▁parent	-2002
▁Tom	-2003
▁team	-2004
ouble	-2005
▁prot	-2006
▁living	-2007
▁pri	-2008
▁German	-2009
▁detail	-2010
▁sister	-2011
▁somewhat	-2012
rise	-2013
wise	-2014
▁female	-2015
▁local	-2016
▁turned	-2017
orth	-2018
▁knew	-2019
▁air	-2020
▁unc	-2021
ky	-2022
▁finds	-2023
ING	-2024
▁Rich	-2025
oud	-2026
apan	-2027
▁dru	-2028
▁knows	-2029
▁running	-2030
▁single	-2031
▁attention	-2032
ey	-2033
▁rating	-2034
reci	-2035
▁silly	-2036
ald	-2037
▁problems	-2038
!"	-2039
▁vict	-2040
▁words	-2041
▁sent	-2042
▁straight	-2043
inc	-2044
lling	-2045
▁pot	-2046
▁taking	-2047
▁remind	-2048
oof	-2049
▁sold	-2050
▁Ad	-2051
gy	-2052
mosp	-2053
▁20	-2054
ained	-2055
▁mist	-2056
lt	-2057
▁Je	-2058
▁ten	-2059
arch	-2060
head	-2061
unt	-2062
▁middle	-2063
▁episodes	-2064
▁land	-2065
▁despite	-2066
▁sequence	-2067
▁contro	-2068
ush	-2069
▁meet	-2070
▁ut	-2071
▁inn	-2072
▁hell	-2073
ires	-2074
ised	-2075
ital	-2076
▁among	-2077
which	-2078
▁Ne	-2079
▁touch	-2080
▁respect	-2081
▁plan	-2082
▁equ	-2083
orable	-2084
▁convin	-2085
▁usually	-2086
▁compl	-2087
▁atmosp	-2088
ants	-2089
rely	-2090
▁talking	-2091
▁cart	-2092
▁clich	-2093
form	-2094
▁events	-2095
track	-2096
EN	-2097
▁aren	-2098
▁tells	-2099
▁British	-2100
▁Osc	-2101
▁modern	-2102
▁including	-2103
back	-2104
usion	-2105
▁eng	-2106
▁Any	-2107
▁ca	-2108
▁forg	-2109
▁unf	-2110
▁hands	-2111
▁Japan	-2112
▁television	-2113
▁due	-2114
▁sign	-2115
otic	-2116
lo	-2117
▁William	-2118
light	-2119
▁gang	-2120
▁OK	-2121
▁intellig	-2122
▁mater	-2123
▁hop	-2124
▁ve	-2125
▁sum	-2126
??	-2127
▁previous	-2128
▁mark	-2129
▁question	-2130
▁Ph	-2131
▁appears	-2132
iod	-2133
ubb	-2134
▁appreci	-2135
▁prog	-2136
▁dull	-2137
As	-2138
▁sets	-2139
aker	-2140
▁El	-2141
▁box	-2142
▁enjoyable	-2143
▁mostly	-2144
▁predictable	-2145
▁songs	-2146
ously	-2147
▁reve	-2148
▁hate	-2149
▁scary	-2150
▁romantic	-2151
▁odd	-2152
▁season	-2153
▁material	-2154
▁soundtrack	-2155
iest	-2156
aught	-2157
▁aspect	-2158
▁upon	-2159
▁happy	-2160
▁seriously	-2161
▁none	-2162
▁apart	-2163
▁pleas	-2164
orry	-2165
attle	-2166
▁beyond	-2167
▁adv	-2168
▁Tr	-2169
▁clear	-2170
go	-2171
uri	-2172
▁check	-2173
▁camp	-2174
▁haven	-2175
▁eye	-2176
▁ways	-2177
▁doubt	-2178
▁clearly	-2179
▁Paul	-2180
▁spir	-2181
▁surprised	-2182
▁comic	-2183
irector	-2184
nding	-2185
▁sequel	-2186
▁giving	-2187
▁Sam	-2188
▁flaw	-2189
▁above	-2190
who	-2191
▁easily	-2192
▁visual	-2193
oun	-2194
▁future	-2195
▁needs	-2196
▁197	-2197
▁ear	-2198
▁feature	-2199
ublic	-2200
▁tried	-2201
key	-2202
▁sexual	-2203
asc	-2204
row	-2205
▁Although	-2206
asy	-2207
▁falls	-2208
▁slight	-2209
▁victim	-2210
▁IM	-2211
work	-2212
▁theat	-2213
▁message	-2214
ggest	-2215
▁fast	-2216
▁creep	-2217
▁accept	-2218
▁showing	-2219
▁Oh	-2220
ara	-2221
ressed	-2222
rated	-2223
▁bunch	-2224
cl	-2225
▁entertainment	-2226
▁bar	-2227
▁release	-2228
▁198	-2229
ension	-2230
▁storyline	-2231
▁adult	-2232
▁setting	-2233
▁met	-2234
▁theme	-2235
?<	-2236
▁suggest	-2237
▁moving	-2238
ltim	-2239
oose	-2240
iel	-2241
inal	-2242
▁twist	-2243
▁Dis	-2244
▁First	-2245
▁personal	-2246
ival	-2247
▁actual	-2248
▁exist	-2249
▁French	-2250
▁period	-2251
ices	-2252
verage	-2253
',	-2254
ening	-2255
irt	-2256
▁emb	-2257
▁George	-2258
EA	-2259
orld	-2260
▁adapt	-2261
▁supporting	-2262
▁large	-2263
oe	-2264
iment	-2265
▁zomb	-2266
ficult	-2267
▁Dr	-2268
wr	-2269
let	-2270
▁kept	-2271
▁surv	-2272
What	-2273
▁mil	-2274
▁means	-2275
▁named	-2276
aur	-2277
▁easy	-2278
▁feels	-2279
▁attack	-2280
▁comments	-2281
▁parents	-2282
▁Mor	-2283
▁elements	-2284
!)	-2285
▁difficult	-2286
IL	-2287
▁post	-2288
▁spoil	-2289
uses	-2290
▁iss	-2291
▁secret	-2292
▁fell	-2293
▁decided	-2294
▁comb	-2295
▁thriller	-2296
▁points	-2297
upp	-2298
bs	-2299
▁NOT	-2300
▁Frank	-2301
▁filmed	-2302
▁herself	-2303
▁working	-2304
ceed	-2305
▁Ital	-2306
kay	-2307
▁free	-2308
▁superb	-2309
▁within	-2310
▁viewers	-2311
▁viewing	-2312
▁ru	-2313
ially	-2314
▁insp	-2315
▁...	-2316
▁bro	-2317
▁Richard	-2318
▁tre	-2319
atural	-2320
bers	-2321
▁US	-2322
▁editing	-2323
▁overall	-2324
▁typical	-2325
ges	-2326
▁Pr	-2327
▁believable	-2328
▁die	-2329
▁York	-2330
▁brought	-2331
▁hear	-2332
▁writ	-2333
▁introdu	-2334
▁realistic	-2335
▁Gu	-2336
▁buy	-2337
▁truth	-2338
▁*	-2339
ising	-2340
gic	-2341
▁suff	-2342
▁Oscar	-2343
▁speak	-2344
▁nearly	-2345
▁reviews	-2346
OU	-2347
▁leads	-2348
bo	-2349
verall	-2350
▁wit	-2351
▁using	-2352
aling	-2353
▁sil	-2354
▁Maybe	-2355
of	-2356
lin	-2357
cious	-2358
▁begins	-2359
oor	-2360
▁mix	-2361
****	-2362
▁business	-2363
▁famous	-2364
esy	-2365
aby	-2366
▁figure	-2367
▁greatest	-2368
▁sequences	-2369
▁cur	-2370
St	-2371
▁weird	-2372
▁premise	-2373
▁America	-2374
▁theater	-2375
▁whether	-2376
▁city	-2377
atever	-2378
▁background	-2379
▁meaning	-2380
▁dan	-2381
▁atmosphere	-2382
piece	-2383
▁expected	-2384
▁Jul	-2385
▁clim	-2386
▁five	-2387
▁basically	-2388
Al	-2389
▁norm	-2390
▁tale	-2391
▁soc	-2392
▁particular	-2393
sw	-2394
▁obs	-2395
rific	-2396
▁sens	-2397
▁Sim	-2398
esome	-2399
ively	-2400
▁animation	-2401
▁fantastic	-2402
▁Col	-2403
▁dumb	-2404
▁situation	-2405
ES	-2406
▁front	-2407
omin	-2408
▁199	-2409
fer	-2410
ged	-2411
irc	-2412
▁Jim	-2413
more	-2414
▁crime	-2415
▁und	-2416
▁wait	-2417
hic	-2418
lfriend	-2419
▁Sch	-2420
ining	-2421
▁Unfortunately	-2422
▁stri	-2423
dden	-2424
▁pure	-2425
?"	-2426
lier	-2427
ula	-2428
▁id	-2429
▁stun	-2430
set	-2431
ogn	-2432
iences	-2433
▁IMD	-2434
▁Aust	-2435
▁Most	-2436
▁Peter	-2437
▁surprise	-2438
▁From	-2439
▁rock	-2440
▁Who	-2441
time	-2442
▁red	-2443
▁Yes	-2444
▁dog	-2445
▁leaves	-2446
af	-2447
▁lim	-2448
▁lots	-2449
lect	-2450
▁killing	-2451
▁poorly	-2452
▁crew	-2453
icks	-2454
▁became	-2455
▁emotional	-2456
▁utter	-2457
▁apparently	-2458
▁tast	-2459
▁footage	-2460
▁appro	-2461
▁needed	-2462
uro	-2463
▁rese	-2464
▁inte	-2465
▁resp	-2466
▁wood	-2467
▁stere	-2468
hys	-2469
urther	-2470
▁Lee	-2471
▁avoid	-2472
▁forced	-2473
ager	-2474
ored	-2475
▁Can	-2476
▁lame	-2477
▁cat	-2478
ee	-2479
▁gone	-2480
▁average	-2481
▁Mon	-2482
▁bored	-2483
▁sudden	-2484
▁exec	-2485
▁clever	-2486
ye	-2487
▁Gra	-2488
▁strugg	-2489
▁/>"	-2490
▁wind	-2491
▁grand	-2492
▁memorable	-2493
▁stage	-2494
▁credits	-2495
arre	-2496
▁Com	-2497
▁male	-2498
▁King	-2499
bb	-2500
'.	-2501
spect	-2502
▁copy	-2503
▁allow	-2504
pend	-2505
Ch	-2506
bert	-2507
▁public	-2508
▁minute	-2509
▁Ex	-2510
▁write	-2511
▁sick	-2512
rey	-2513
▁Tw	-2514
▁interested	-2515
▁Like	-2516
▁society	-2517
▁monster	-2518
▁prop	-2519
▁shame	-2520
▁ultim	-2521
friend	-2522
▁bel	-2523
▁Film	-2524
▁liter	-2525
rom	-2526
▁Ang	-2527
▁fire	-2528
cers	-2529
▁Ben	-2530
▁unique	-2531
▁emotion	-2532
▁features	-2533
▁anyway	-2534
ries	-2535
▁project	-2536
ett	-2537
▁perfectly	-2538
over	-2539
▁space	-2540
▁design	-2541
lor	-2542
▁AN	-2543
▁laughs	-2544
▁somehow	-2545
So	-2546
▁meets	-2547
ume	-2548
▁keeps	-2549
ills	-2550
iliar	-2551
▁prison	-2552
ius	-2553
agon	-2554
▁nature	-2555
▁express	-2556
▁Its	-2557
▁Par	-2558
▁quickly	-2559
isf	-2560
angu	-2561
▁villain	-2562
anks	-2563
ived	-2564
▁Mart	-2565
▁meant	-2566
▁cheesy	-2567
erv	-2568
▁Sm	-2569
▁los	-2570
▁heav	-2571
▁stereot	-2572
▁girlfriend	-2573
reed	-2574
▁mill	-2575
▁cover	-2576
▁dam	-2577
▁law	-2578
▁oper	-2579
▁advent	-2580
ai	-2581
bor	-2582
▁forward	-2583
▁concept	-2584
▁er	-2585
▁reading	-2586
▁worked	-2587
▁realize	-2588
por	-2589
hood	-2590
▁mad	-2591
▁ment	-2592
▁Disney	-2593
▁amount	-2594
▁mystery	-2595
urd	-2596
▁imagine	-2597
My	-2598
acy	-2599
chie	-2600
▁Wood	-2601
action	-2602
well	-2603
▁yes	-2604
▁disturb	-2605
▁earlier	-2606
▁profess	-2607
ises	-2608
acing	-2609
▁unlike	-2610
eless	-2611
▁romance	-2612
RE	-2613
ned	-2614
▁masterpiece	-2615
▁badly	-2616
▁These	-2617
▁conne	-2618
▁Japanese	-2619
▁Good	-2620
▁cry	-2621
▁agree	-2622
▁general	-2623
▁gay	-2624
iny	-2625
▁purp	-2626
▁popular	-2627
▁By	-2628
?)	-2629
ask	-2630
opp	-2631
arry	-2632
host	-2633
▁repe	-2634
▁screenplay	-2635
▁Af	-2636
▁cap	-2637
allow	-2638
ze	-2639
▁enc	-2640
▁whom	-2641
▁third	-2642
▁possibly	-2643
▁band	-2644
▁extra	-2645
▁brings	-2646
▁histor	-2647
▁IMDb	-2648
▁older	-2649
▁total	-2650
▁various	-2651
▁recogn	-2652
▁Che	-2653
▁admit	-2654
kn	-2655
▁fasc	-2656
aked	-2657
▁incredibly	-2658
ana	-2659
▁towards	-2660
▁powerful	-2661
▁joke	-2662
ring	-2663
▁195	-2664
▁bare	-2665
▁colle	-2666
▁Scott	-2667
▁dance	-2668
▁trad	-2669
")	-2670
cher	-2671
▁writers	-2672
oman	-2673
stead	-2674
cessary	-2675
▁innoc	-2676
look	-2677
▁conv	-2678
▁collect	-2679
You	-2680
arring	-2681
unny	-2682
▁acted	-2683
▁cartoon	-2684
▁reasons	-2685
▁hom	-2686
olf	-2687
itty	-2688
▁fails	-2689
▁development	-2690
king	-2691
▁rich	-2692
▁please	-2693
rif	-2694
▁battle	-2695
▁eventually	-2696
▁nor	-2697
▁occas	-2698
▁spent	-2699
▁inside	-2700
▁Pat	-2701
belie	-2702
erm	-2703
▁fairly	-2704
▁portrayed	-2705
▁directing	-2706
▁jour	-2707
▁sleep	-2708
▁attract	-2709
▁deserves	-2710
▁creepy	-2711
An	-2712
▁Su	-2713
▁Tra	-2714
▁flat	-2715
par	-2716
ases	-2717
▁invest	-2718
▁Lu	-2719
ford	-2720
▁circ	-2721
▁imm	-2722
▁vamp	-2723
▁Night	-2724
itted	-2725
▁wasted	-2726
▁dramatic	-2727
udd	-2728
▁Black	-2729
▁scient	-2730
▁directors	-2731
▁catch	-2732
▁sounds	-2733
with	-2734
ivid	-2735
▁beauty	-2736
▁manages	-2737
ips	-2738
▁attempts	-2739
roy	-2740
▁ideas	-2741
▁plain	-2742
▁cond	-2743
▁leading	-2744
ague	-2745
vered	-2746
▁expecting	-2747
▁create	-2748
bl	-2749
mas	-2750
▁commun	-2751
▁spirit	-2752
erry	-2753
▁ign	-2754
▁bed	-2755
▁phys	-2756
men	-2757
▁langu	-2758
▁Bra	-2759
▁Des	-2760
▁ident	-2761
▁political	-2762
All	-2763
inary	-2764
udity	-2765
▁plenty	-2766
▁boys	-2767
▁Ale	-2768
ero	-2769
medi	-2770
▁members	-2771
▁neg	-2772
▁:	-2773
▁Euro	-2774
▁aut	-2775
▁familiar	-2776
▁sorry	-2777
mist	-2778
▁ended	-2779
▁indeed	-2780
▁Russ	-2781
▁record	-2782
resh	-2783
▁Joe	-2784
▁caught	-2785
▁missing	-2786
▁explain	-2787
cause	-2788
boy	-2789
andy	-2790
acher	-2791
▁symp	-2792
ades	-2793
arrass	-2794
▁revol	-2795
▁Em	-2796
▁aff	-2797
▁accident	-2798
▁fighting	-2799
gest	-2800
▁stat	-2801
▁positive	-2802
rel	-2803
oles	-2804
▁ess	-2805
▁laughing	-2806
▁potential	-2807
!!!!	-2808
onic	-2809
▁offic	-2810
een	-2811
▁achie	-2812
▁sweet	-2813
izing	-2814
▁water	-2815
yl	-2816
▁rob	-2817
▁note	-2818
▁World	-2819
▁outside	-2820
▁match	-2821
lu	-2822
▁Watch	-2823
▁common	-2824
▁jud	-2825
▁remake	-2826
▁recently	-2827
irl	-2828
val	-2829
▁est	-2830
▁Here	-2831
▁porn	-2832
▁talented	-2833
▁filmmakers	-2834
▁!	-2835
▁requ	-2836
hel	-2837
▁30	-2838
cent	-2839
▁Great	-2840
▁embarrass	-2841
▁travel	-2842
▁hair	-2843
▁pace	-2844
▁depth	-2845
▁flash	-2846
▁ble	-2847
▁("	-2848
▁claim	-2849
▁created	-2850
ashing	-2851
cked	-2852
▁telling	-2853
ites	-2854
▁escape	-2855
▁funn	-2856
▁social	-2857
▁Other	-2858
▁Pro	-2859
▁impro	-2860
▁relig	-2861
▁era	-2862
▁immedi	-2863
iers	-2864
▁idi	-2865
▁Italian	-2866
ology	-2867
iced	-2868
▁biz	-2869
▁Mat	-2870
▁intri	-2871
▁bother	-2872
▁brain	-2873
▁Bill	-2874
▁answ	-2875
▁trail	-2876
▁following	-2877
IS	-2878
ha	-2879
▁complex	-2880
▁step	-2881
▁missed	-2882
▁western	-2883
iously	-2884
▁crazy	-2885
emy	-2886
▁brief	-2887
▁nudity	-2888
vil	-2889
ieces	-2890
▁cute	-2891
▁murd	-2892
▁whatever	-2893
▁af	-2894
▁arri	-2895
uine	-2896
▁hy	-2897
▁former	-2898
umes	-2899
asher	-2900
▁medi	-2901
▁Van	-2902
venge	-2903
while	-2904
▁amb	-2905
▁credit	-2906
▁waiting	-2907
rect	-2908
▁anti	-2909
▁15	-2910
sters	-2911
uter	-2912
▁mentioned	-2913
▁slightly	-2914
imp	-2915
▁stereotyp	-2916
▁lady	-2917
▁hardly	-2918
▁decides	-2919
ibility	-2920
▁mel	-2921
▁rece	-2922
▁uses	-2923
▁forgot	-2924
▁further	-2925
▁convincing	-2926
▁Act	-2927
▁sees	-2928
▁Instead	-2929
arl	-2930
▁mod	-2931
▁clos	-2932
▁draw	-2933
▁store	-2934
▁desper	-2935
▁casting	-2936
eg	-2937
▁subtle	-2938
berg	-2939
ging	-2940
rage	-2941
vern	-2942
▁mid	-2943
▁doll	-2944
ele	-2945
▁Tim	-2946
▁mass	-2947
ossible	-2948
▁entirely	-2949
▁control	-2950
▁follows	-2951
ishing	-2952
▁delight	-2953
▁appreciate	-2954
itation	-2955
▁portrayal	-2956
▁accent	-2957
▁fit	-2958
▁explo	-2959
▁pointless	-2960
▁value	-2961
▁doctor	-2962
su	-2963
▁died	-2964
▁Europe	-2965
▁tension	-2966
▁Mad	-2967
▁rad	-2968
▁Park	-2969
▁married	-2970
PO	-2971
lict	-2972
▁wrote	-2973
lying	-2974
alth	-2975
▁Hor	-2976
▁ine	-2977
▁rate	-2978
ashion	-2979
▁193	-2980
▁color	-2981
cast	-2982
inating	-2983
▁remark	-2984
▁genuine	-2985
▁unbelie	-2986
VER	-2987
con	-2988
iff	-2989
uted	-2990
OM	-2991
▁stick	-2992
▁scream	-2993
▁tort	-2994
▁En	-2995
zz	-2996
annel	-2997
inger	-2998
uster	-2999
come	-3000
▁choice	-3001
▁fantasy	-3002
▁Ser	-3003
iving	-3004
▁moves	-3005
▁produced	-3006
ED	-3007
iller	-3008
▁younger	-3009
▁196	-3010
▁solid	-3011
fi	-3012
elly	-3013
▁depict	-3014
ipp	-3015
▁situations	-3016
▁Star	-3017
this	-3018
idden	-3019
▁critic	-3020
▁images	-3021
▁biggest	-3022
alt	-3023
str	-3024
sequ	-3025
ilt	-3026
▁fol	-3027
▁garb	-3028
▁satisf	-3029
▁Sw	-3030
▁incredible	-3031
One	-3032
lusion	-3033
▁successful	-3034
▁language	-3035
▁soul	-3036
▁wall	-3037
▁ground	-3038
▁longer	-3039
▁Jane	-3040
▁decide	-3041
standing	-3042
▁intelligent	-3043
How	-3044
oph	-3045
▁Let	-3046
▁cru	-3047
▁exciting	-3048
oes	-3049
▁danger	-3050
▁week	-3051
ened	-3052
▁amusing	-3053
irty	-3054
▁rap	-3055
aging	-3056
▁wild	-3057
▁humour	-3058
▁company	-3059
ille	-3060
▁contr	-3061
ateur	-3062
OW	-3063
▁earth	-3064
▁compet	-3065
▁purpose	-3066
▁party	-3067
no	-3068
ding	-3069
▁recent	-3070
▁regard	-3071
▁effective	-3072
TH	-3073
▁spend	-3074
▁train	-3075
ified	-3076
▁unfortunately	-3077
ribly	-3078
000	-3079
room	-3080
arily	-3081
▁bizarre	-3082
▁brut	-3083
▁track	-3084
ette	-3085
known	-3086
▁mach	-3087
▁likes	-3088
▁trouble	-3089
▁100	-3090
ization	-3091
aus	-3092
gend	-3093
wart	-3094
▁refe	-3095
▁focus	-3096
▁questions	-3097
ki	-3098
▁breat	-3099
▁otherwise	-3100
▁II	-3101
▁glad	-3102
appe	-3103
▁drug	-3104
▁weren	-3105
▁unless	-3106
▁program	-3107
▁Ir	-3108
itary	-3109
▁mood	-3110
▁inform	-3111
▁suspect	-3112
▁producers	-3113
▁Lou	-3114
▁kills	-3115
▁terror	-3116
▁sci	-3117
▁auth	-3118
▁changed	-3119
▁violent	-3120
anda	-3121
▁jump	-3122
▁values	-3123
▁college	-3124
▁concern	-3125
▁fake	-3126
▁Movie	-3127
▁filled	-3128
▁impressive	-3129
▁luck	-3130
▁showed	-3131
▁Cra	-3132
▁Dead	-3133
▁cross	-3134
▁pathetic	-3135
▁continu	-3136
▁garbage	-3137
▁Christmas	-3138
▁Love	-3139
mistry	-3140
▁compe	-3141
▁mer	-3142
idered	-3143
▁Hitch	-3144
▁involving	-3145
▁Gold	-3146
▁unin	-3147
▁Mac	-3148
movie	-3149
▁slasher	-3150
▁repres	-3151
▁opportun	-3152
iche	-3153
▁Boy	-3154
ares	-3155
On	-3156
▁compared	-3157
even	-3158
mon	-3159
▁suc	-3160
Don	-3161
ength	-3162
iding	-3163
▁spot	-3164
▁amateur	-3165
BC	-3166
▁OF	-3167
▁Big	-3168
▁Fred	-3169
▁street	-3170
LE	-3171
▁fear	-3172
▁disg	-3173
▁taste	-3174
▁barely	-3175
▁culture	-3176
ective	-3177
▁affect	-3178
▁failed	-3179
▁suddenly	-3180
▁interview	-3181
▁rede	-3182
▁Red	-3183
ottom	-3184
▁Afric	-3185
▁bought	-3186
▁awesome	-3187
▁test	-3188
▁singing	-3189
▁194	-3190
▁beat	-3191
▁dancing	-3192
▁product	-3193
▁chemistry	-3194
▁Fran	-3195
▁ball	-3196
▁spect	-3197
▁ability	-3198
▁trash	-3199
aper	-3200
▁avail	-3201
OO	-3202
min	-3203
ener	-3204
▁considered	-3205
▁disturbing	-3206
ondon	-3207
▁carry	-3208
▁cause	-3209
▁fat	-3210
round	-3211
▁contri	-3212
▁manner	-3213
▁studio	-3214
▁state	-3215
▁search	-3216
▁Stre	-3217
▁bull	-3218
▁accur	-3219
▁exception	-3220
ales	-3221
iles	-3222
▁immediately	-3223
cted	-3224
inn	-3225
une	-3226
▁Rock	-3227
▁ghost	-3228
▁roll	-3229
▁books	-3230
▁island	-3231
***	-3232
▁kick	-3233
▁reveal	-3234
▁succeed	-3235
▁impossible	-3236
▁Fl	-3237
fort	-3238
▁bomb	-3239
▁crim	-3240
▁repl	-3241
▁thinks	-3242
▁deliver	-3243
For	-3244
▁audiences	-3245
aven	-3246
▁hang	-3247
▁shooting	-3248
aff	-3249
▁Ray	-3250
idence	-3251
▁rand	-3252
▁road	-3253
▁Indian	-3254
rupt	-3255
▁tough	-3256
▁impression	-3257
war	-3258
▁Dra	-3259
▁trip	-3260
▁govern	-3261
reg	-3262
cock	-3263
▁god	-3264
▁cold	-3265
▁minor	-3266
▁office	-3267
▁gag	-3268
▁suit	-3269
▁basic	-3270
▁leaving	-3271
ILER	-3272
▁90	-3273
reaking	-3274
▁appeal	-3275
▁issues	-3276
▁Alex	-3277
▁City	-3278
▁runs	-3279
▁House	-3280
▁favour	-3281
iver	-3282
▁pack	-3283
▁80'	-3284
▁Mel	-3285
▁pract	-3286
▁Mur	-3287
▁door	-3288
ensive	-3289
izes	-3290
▁lau	-3291
▁pun	-3292
▁genius	-3293
▁Perhaps	-3294
▁considering	-3295
POILER	-3296
▁redeem	-3297
rian	-3298
▁Ber	-3299
▁fashion	-3300
ify	-3301
▁ST	-3302
iring	-3303
night	-3304
▁London	-3305
▁sitting	-3306
▁Ye	-3307
▁Cor	-3308
▁unex	-3309
rences	-3310
▁likely	-3311
▁investig	-3312
▁added	-3313
▁conclusion	-3314
rid	-3315
▁twists	-3316
▁Bur	-3317
▁pers	-3318
lessly	-3319
amb	-3320
▁loud	-3321
▁random	-3322
irth	-3323
▁clot	-3324
▁insult	-3325
▁stunning	-3326
▁natural	-3327
▁appearance	-3328
ste	-3329
that	-3330
▁baby	-3331
making	-3332
oop	-3333
▁def	-3334
▁notice	-3335
▁occur	-3336
▁ship	-3337
aining	-3338
▁smart	-3339
aine	-3340
owers	-3341
▁alive	-3342
▁Another	-3343
▁Way	-3344
icated	-3345
cle	-3346
▁Ag	-3347
▁terms	-3348
AS	-3349
kin	-3350
ands	-3351
▁gem	-3352
▁Mary	-3353
▁Angel	-3354
▁author	-3355
▁scenery	-3356
▁lab	-3357
▁sav	-3358
opher	-3359
▁grap	-3360
▁respons	-3361
you	-3362
▁prep	-3363
▁indust	-3364
▁adventure	-3365
▁neither	-3366
▁presence	-3367
▁fresh	-3368
▁Bob	-3369
▁Bru	-3370
▁Earth	-3371
▁faith	-3372
▁destroy	-3373
▁computer	-3374
▁standard	-3375
ID	-3376
▁Sure	-3377
▁Bat	-3378
▁normal	-3379
▁Charles	-3380
▁wee	-3381
▁Stan	-3382
▁century	-3383
▁somewhere	-3384
vert	-3385
▁available	-3386
anna	-3387
▁Nor	-3388
▁heavy	-3389
ological	-3390
▁cinematic	-3391
▁revenge	-3392
▁journey	-3393
ths	-3394
icide	-3395
riage	-3396
▁remains	-3397
▁soldiers	-3398
".<	-3399
▁Best	-3400
▁mult	-3401
▁nowhere	-3402
▁managed	-3403
▁ultimately	-3404
▁approach	-3405
▁rare	-3406
▁neigh	-3407
▁obsess	-3408
▁boyfriend	-3409
▁uns	-3410
ictor	-3411
▁okay	-3412
▁affair	-3413
stem	-3414
▁Bel	-3415
▁flashback	-3416
▁sexy	-3417
▁Austral	-3418
▁suppose	-3419
ena	-3420
itions	-3421
▁force	-3422
▁conflict	-3423
athy	-3424
▁magic	-3425
▁climax	-3426
▁zombie	-3427
▁passion	-3428
▁intrigu	-3429
▁constantly	-3430
▁dro	-3431
▁threat	-3432
▁thrown	-3433
▁describ	-3434
ropri	-3435
▁changes	-3436
▁emotions	-3437
▁photography	-3438
▁jo	-3439
iven	-3440
▁adaptation	-3441
▁10.	-3442
▁Ann	-3443
▁Jones	-3444
riff	-3445
▁details	-3446
▁narrative	-3447
esides	-3448
▁names	-3449
▁Hol	-3450
ivers	-3451
▁utterly	-3452
▁starring	-3453
▁beautifully	-3454
face	-3455
estival	-3456
▁charming	-3457
▁literally	-3458
▁demon	-3459
▁offer	-3460
just	-3461
▁Ham	-3462
▁ast	-3463
ander	-3464
ented	-3465
▁Paris	-3466
▁din	-3467
played	-3468
▁places	-3469
▁witness	-3470
▁dig	-3471
itude	-3472
▁behav	-3473
▁Director	-3474
▁protagon	-3475
▁terrific	-3476
▁High	-3477
vey	-3478
▁tone	-3479
ressing	-3480
▁intended	-3481
▁curi	-3482
▁escap	-3483
▁commer	-3484
▁individ	-3485
▁animated	-3486
orts	-3487
urch	-3488
▁innocent	-3489
gl	-3490
uts	-3491
▁laughable	-3492
elling	-3493
▁influ	-3494
▁stands	-3495
▁comedies	-3496
▁historical	-3497
▁Very	-3498
▁Ant	-3499
▁har	-3500
lease	-3501
▁recommended	-3502
▁disappointing	-3503
oking	-3504
▁drink	-3505
▁compar	-3506
▁science	-3507
oned	-3508
▁six	-3509
▁tradition	-3510
▁squ	-3511
board	-3512
▁presented	-3513
▁Sci	-3514
▁host	-3515
▁feelings	-3516
OV	-3517
mar	-3518
arsh	-3519
oices	-3520
ability	-3521
▁touching	-3522
unting	-3523
▁Smith	-3524
▁finish	-3525
▁puts	-3526
awn	-3527
▁Where	-3528
▁throw	-3529
▁painful	-3530
▁costumes	-3531
ospital	-3532
▁filming	-3533
▁generally	-3534
▁surprisingly	-3535
▁surround	-3536
▁unbelievable	-3537
part	-3538
field	-3539
▁Miss	-3540
▁spec	-3541
▁addition	-3542
▁gold	-3543
▁chall	-3544
▁plus	-3545
▁charm	-3546
▁pieces	-3547
▁themes	-3548
▁leg	-3549
▁fool	-3550
▁loose	-3551
▁absurd	-3552
▁military	-3553
▁building	-3554
▁government	-3555
oh	-3556
ica	-3557
IT	-3558
▁ur	-3559
▁soft	-3560
▁teacher	-3561
▁CG	-3562
▁aspects	-3563
▁Jeff	-3564
▁Still	-3565
▁loves	-3566
▁medioc	-3567
ode	-3568
ivil	-3569
▁boss	-3570
▁slowly	-3571
He	-3572
▁system	-3573
▁fully	-3574
▁lovely	-3575
▁Cal	-3576
▁offe	-3577
▁hoping	-3578
▁makers	-3579
▁object	-3580
▁disappointment	-3581
AD	-3582
ghed	-3583
▁Sec	-3584
▁intense	-3585
▁Hitchcock	-3586
▁mistake	-3587
▁Christian	-3588
▁individual	-3589
pro	-3590
▁18	-3591
▁tired	-3592
▁Because	-3593
▁Hen	-3594
ta	-3595
down	-3596
ploy	-3597
▁Charlie	-3598
CH	-3599
▁date	-3600
▁expectations	-3601
▁sto	-3602
house	-3603
▁Only	-3604
▁acts	-3605
▁burn	-3606
▁alien	-3607
▁80	-3608
anted	-3609
illing	-3610
ples	-3611
▁spl	-3612
oughly	-3613
▁artist	-3614
▁length	-3615
▁silent	-3616
budget	-3617
▁ener	-3618
▁element	-3619
▁million	-3620
▁Steve	-3621
▁excuse	-3622
▁Bro	-3623
▁opportunity	-3624
▁defe	-3625
▁discuss	-3626
▁discover	-3627
▁commercial	-3628
now	-3629
▁magn	-3630
▁ride	-3631
▁Harry	-3632
entially	-3633
▁Two	-3634
▁dad	-3635
▁equally	-3636
▁Dark	-3637
▁moral	-3638
▁current	-3639
?!	-3640
gue	-3641
▁student	-3642
▁dim	-3643
▁key	-3644
ached	-3645
▁init	-3646
▁mysterious	-3647
▁fascinating	-3648
▁outstanding	-3649
IG	-3650
▁lif	-3651
istent	-3652
▁subst	-3653
▁intern	-3654
▁proper	-3655
▁Cr	-3656
ision	-3657
under	-3658
▁drive	-3659
▁Ry	-3660
aint	-3661
ribe	-3662
▁Str	-3663
▁contains	-3664
▁Gl	-3665
ooks	-3666
▁Mark	-3667
▁numb	-3668
▁drunk	-3669
▁knowing	-3670
▁Tony	-3671
▁include	-3672
uit	-3673
win	-3674
▁ord	-3675
▁impl	-3676
▁qual	-3677
.....	-3678
▁Yet	-3679
▁div	-3680
▁content	-3681
anch	-3682
▁WW	-3683
asty	-3684
akespe	-3685
▁legend	-3686
▁laughed	-3687
▁happening	-3688
mark	-3689
onna	-3690
ledge	-3691
▁desert	-3692
▁pictures	-3693
▁Bruce	-3694
▁sight	-3695
▁serial	-3696
▁South	-3697
▁People	-3698
▁students	-3699
sey	-3700
▁Fe	-3701
▁mouth	-3702
▁Adam	-3703
▁West	-3704
▁walking	-3705
ini	-3706
▁Du	-3707
appy	-3708
▁dies	-3709
▁lived	-3710
▁process	-3711
mes	-3712
▁Tar	-3713
▁melod	-3714
▁Stewart	-3715
▁confusing	-3716
lyn	-3717
mbol	-3718
▁irrit	-3719
▁Pol	-3720
▁Jean	-3721
▁critics	-3722
▁Chris	-3723
▁flicks	-3724
IE	-3725
▁disgust	-3726
ront	-3727
heart	-3728
▁Though	-3729
▁disaster	-3730
hor	-3731
ural	-3732
▁Victor	-3733
▁difference	-3734
▁Dou	-3735
▁seg	-3736
▁race	-3737
▁Nothing	-3738
▁trag	-3739
▁image	-3740
▁breath	-3741
pret	-3742
▁Jew	-3743
▁clean	-3744
▁dread	-3745
▁lacks	-3746
▁photograp	-3747
▁relationships	-3748
▁Bar	-3749
▁compelling	-3750
inct	-3751
dered	-3752
▁serv	-3753
▁folks	-3754
▁producer	-3755
▁impressed	-3756
▁Hard	-3757
▁edge	-3758
▁drawn	-3759
▁oppos	-3760
▁location	-3761
vir	-3762
asing	-3763
▁faces	-3764
▁likable	-3765
▁marriage	-3766
table	-3767
▁virt	-3768
▁correct	-3769
▁cell	-3770
inally	-3771
▁share	-3772
ift	-3773
▁Bad	-3774
▁helps	-3775
gly	-3776
exic	-3777
▁****	-3778
▁confused	-3779
▁Ab	-3780
▁rip	-3781
▁adds	-3782
We	-3783
rend	-3784
▁drugs	-3785
▁developed	-3786
Not	-3787
uous	-3788
ham	-3789
▁thor	-3790
writer	-3791
▁Martin	-3792
▁50	-3793
That	-3794
▁pil	-3795
▁Sand	-3796
▁Overall	-3797
▁appeared	-3798
▁hospital	-3799
ppy	-3800
uel	-3801
▁information	-3802
▁Never	-3803
good	-3804
▁giant	-3805
▁gorge	-3806
▁forever	-3807
erous	-3808
pendent	-3809
▁spectac	-3810
thur	-3811
▁remote	-3812
▁lighting	-3813
AL	-3814
tend	-3815
▁prim	-3816
▁delivers	-3817
gged	-3818
▁Kelly	-3819
▁victims	-3820
Sh	-3821
▁ge	-3822
▁Fox	-3823
▁Gar	-3824
▁mir	-3825
▁motion	-3826
▁Shakespe	-3827
▁Ram	-3828
▁fault	-3829
▁flaws	-3830
▁negative	-3831
▁seemingly	-3832
omething	-3833
▁Co	-3834
ency	-3835
omas	-3836
▁paid	-3837
▁chase	-3838
▁symbol	-3839
▁vampire	-3840
ka	-3841
▁news	-3842
▁answer	-3843
▁offers	-3844
▁wondering	-3845
ops	-3846
When	-3847
text	-3848
uddy	-3849
▁crow	-3850
▁naked	-3851
ss	-3852
ken	-3853
▁AND	-3854
▁East	-3855
▁multi	-3856
Overall	-3857
▁anymore	-3858
▁joy	-3859
▁trailer	-3860
▁rout	-3861
▁dreams	-3862
▁mainly	-3863
▁See	-3864
anced	-3865
▁hasn	-3866
▁resc	-3867
▁Go	-3868
▁IS	-3869
aches	-3870
aries	-3871
▁fright	-3872
▁creative	-3873
▁industry	-3874
▁provides	-3875
Jo	-3876
rog	-3877
▁finding	-3878
azz	-3879
oom	-3880
ustr	-3881
▁holes	-3882
▁allowed	-3883
ita	-3884
icip	-3885
▁Day	-3886
osh	-3887
ushed	-3888
▁lover	-3889
▁adults	-3890
▁merely	-3891
▁Russian	-3892
▁hig	-3893
▁Part	-3894
pected	-3895
▁Mexic	-3896
ilities	-3897
▁funniest	-3898
▁bi	-3899
▁More	-3900
▁melodram	-3901
▁Tre	-3902
verse	-3903
▁nobody	-3904
▁willing	-3905
To	-3906
life	-3907
raid	-3908
▁thank	-3909
▁convers	-3910
▁disappe	-3911
▁forgotten	-3912
▁highlight	-3913
ech	-3914
ique	-3915
▁Jon	-3916
▁dubb	-3917
▁Steven	-3918
▁market	-3919
▁rented	-3920
▁fiction	-3921
▁imagination	-3922
▁nons	-3923
▁everybody	-3924
abb	-3925
▁stuck	-3926
▁gorgeous	-3927
cra	-3928
▁12	-3929
▁explan	-3930
▁impact	-3931
▁honestly	-3932
▁standards	-3933
▁wide	-3934
▁ahead	-3935
▁reminded	-3936
▁attractive	-3937
▁oh	-3938
▁pen	-3939
soever	-3940
▁becoming	-3941
itz	-3942
lled	-3943
▁Many	-3944
▁mart	-3945
▁unus	-3946
▁Canad	-3947
▁eight	-3948
elebr	-3949
orter	-3950
▁zombies	-3951
▁collection	-3952
lock	-3953
▁onto	-3954
▁contem	-3955
▁falling	-3956
▁followed	-3957
▁mediocre	-3958
▁mat	-3959
▁club	-3960
▁round	-3961
▁fellow	-3962
aud	-3963
▁rac	-3964
▁Bond	-3965
▁Walk	-3966
▁ready	-3967
▁station	-3968
/2	-3969
pper	-3970
▁Bet	-3971
Americ	-3972
▁board	-3973
▁Despite	-3974
▁personality	-3975
itor	-3976
▁lad	-3977
stein	-3978
▁fort	-3979
▁latter	-3980
▁occasion	-3981
IC	-3982
▁Spe	-3983
▁double	-3984
AY	-3985
abl	-3986
▁eat	-3987
▁area	-3988
entional	-3989
▁Americans	-3990
▁whatsoever	-3991
.,	-3992
▁Rog	-3993
▁unne	-3994
▁detective	-3995
▁actions	-3996
▁animals	-3997
see	-3998
she	-3999
▁aim	-4000
▁ham	-4001
asure	-4002
illed	-4003
▁kidn	-4004
▁gri	-4005
▁cops	-4006
▁aside	-4007
▁Jackson	-4008
▁suicide	-4009
AC	-4010
oted	-4011
xual	-4012
▁led	-4013
▁prin	-4014
▁Billy	-4015
▁helped	-4016
▁streng	-4017
iday	-4018
ishes	-4019
▁phone	-4020
▁tragic	-4021
▁Step	-4022
▁hide	-4023
▁Robin	-4024
▁Young	-4025
▁twice	-4026
▁putting	-4027
▁underst	-4028
▁Christopher	-4029
aded	-4030
▁reach	-4031
▁picked	-4032
▁unreal	-4033
▁Er	-4034
▁Wil	-4035
▁Dick	-4036
▁blind	-4037
athetic	-4038
▁member	-4039
Be	-4040
▁Naz	-4041
▁den	-4042
▁Super	-4043
Bl	-4044
▁Carl	-4045
▁Phil	-4046
▁pair	-4047
▁worthy	-4048
hol	-4049
▁base	-4050
▁achieve	-4051
▁possess	-4052
eper	-4053
▁Show	-4054
▁shouldn	-4055
▁scientist	-4056
aton	-4057
▁/>-	-4058
odies	-4059
▁moved	-4060
▁thoroughly	-4061
▁40	-4062
▁grow	-4063
▁childhood	-4064
gar	-4065
▁Te	-4066
▁crowd	-4067
▁encoun	-4068
▁proves	-4069
▁Shakespeare	-4070
▁Ms	-4071
rough	-4072
▁Both	-4073
father	-4074
▁wise	-4075
▁Story	-4076
▁tragedy	-4077
▁professional	-4078
ffe	-4079
ios	-4080
▁ON	-4081
▁bottom	-4082
▁justice	-4083
▁friendship	-4084
▁Sl	-4085
▁Ford	-4086
▁quiet	-4087
▁actresses	-4088
azy	-4089
ium	-4090
▁bene	-4091
▁weap	-4092
LY	-4093
ules	-4094
▁seconds	-4095
▁hook	-4096
herent	-4097
▁plane	-4098
▁rated	-4099
▁formula	-4100
film	-4101
▁unw	-4102
▁Green	-4103
▁celebr	-4104
.'	-4105
▁McC	-4106
▁pra	-4107
▁drag	-4108
▁Western	-4109
inese	-4110
▁noir	-4111
▁asked	-4112
▁slap	-4113
▁turning	-4114
▁continue	-4115
▁commentary	-4116
requ	-4117
▁Mus	-4118
▁began	-4119
▁provide	-4120
▁sour	-4121
mi	-4122
▁Bas	-4123
▁lose	-4124
▁shocking	-4125
▁nasty	-4126
▁murders	-4127
▁wearing	-4128
▁superior	-4129
▁supposedly	-4130
▁channel	-4131
▁describe	-4132
agger	-4133
ifer	-4134
arded	-4135
▁angry	-4136
▁opera	-4137
▁afraid	-4138
▁realized	-4139
TV	-4140
▁70	-4141
▁Lau	-4142
▁bits	-4143
▁trust	-4144
▁wooden	-4145
▁central	-4146
▁tar	-4147
anic	-4148
port	-4149
oring	-4150
▁bright	-4151
▁physical	-4152
▁clothes	-4153
▁Lyn	-4154
▁Once	-4155
▁held	-4156
▁broad	-4157
▁knock	-4158
▁depart	-4159
kes	-4160
▁Lo	-4161
oore	-4162
ament	-4163
anish	-4164
oos	-4165
▁CGI	-4166
agers	-4167
Now	-4168
eal	-4169
illa	-4170
year	-4171
▁repeated	-4172
▁apartment	-4173
)<	-4174
▁Mag	-4175
ovies	-4176
▁warm	-4177
▁horse	-4178
▁artistic	-4179
▁Everything	-4180
▁introduced	-4181
Un	-4182
mm	-4183
icious	-4184
▁Their	-4185
▁listen	-4186
▁surely	-4187
▁insight	-4188
▁struggle	-4189
resses	-4190
▁dying	-4191
▁memory	-4192
▁planet	-4193
alled	-4194
ators	-4195
▁agent	-4196
▁favourite	-4197
▁Sar	-4198
▁energy	-4199
▁wanting	-4200
▁unexpected	-4201
roc	-4202
▁Bo	-4203
miss	-4204
▁sell	-4205
▁compare	-4206
▁redeeming	-4207
erk	-4208
▁VH	-4209
▁thanks	-4210
▁pleasure	-4211
At	-4212
/10.	-4213
▁Den	-4214
▁accom	-4215
olds	-4216
▁epic	-4217
▁perform	-4218
▁necessary	-4219
ja	-4220
aire	-4221
rors	-4222
▁Too	-4223
▁damn	-4224
▁thin	-4225
▁sadly	-4226
▁inspired	-4227
De	-4228
▁lies	-4229
▁Anyway	-4230
ano	-4231
apped	-4232
▁youth	-4233
▁employ	-4234
zen	-4235
▁cal	-4236
▁numbers	-4237
▁torture	-4238
▁intriguing	-4239
gent	-4240
otes	-4241
kward	-4242
▁scare	-4243
▁loving	-4244
▁prefer	-4245
ropriate	-4246
▁Ac	-4247
ousy	-4248
▁Sad	-4249
ading	-4250
▁coun	-4251
▁thus	-4252
▁ugly	-4253
▁blond	-4254
▁Jes	-4255
▁Barb	-4256
▁brutal	-4257
▁resemb	-4258
▁deserve	-4259
▁creature	-4260
▁hat	-4261
▁explos	-4262
▁Ryan	-4263
▁Little	-4264
▁teenage	-4265
▁relative	-4266
▁Did	-4267
▁asks	-4268
lla	-4269
▁Jr	-4270
▁path	-4271
▁aware	-4272
▁brothers	-4273
▁70'	-4274
▁Girl	-4275
▁belong	-4276
▁anywhere	-4277
asts	-4278
▁intelligence	-4279
,000	-4280
▁chick	-4281
▁relie	-4282
▁separ	-4283
▁Batman	-4284
▁account	-4285
aly	-4286
▁tears	-4287
▁comedic	-4288
▁soldier	-4289
▁Williams	-4290
▁accurate	-4291
▁deserved	-4292
▁Sy	-4293
ancy	-4294
▁der	-4295
tered	-4296
▁rape	-4297
▁rubb	-4298
entious	-4299
▁priest	-4300
▁vision	-4301
▁watchable	-4302
▁holds	-4303
afe	-4304
iac	-4305
▁Dar	-4306
▁deeply	-4307
▁filmmaker	-4308
▁surprising	-4309
▁Ev	-4310
ddie	-4311
undred	-4312
▁awkward	-4313
▁religious	-4314
▁personally	-4315
ras	-4316
▁IN	-4317
Some	-4318
▁Cam	-4319
▁Hel	-4320
▁Henry	-4321
▁mount	-4322
▁unknown	-4323
▁?	-4324
vate	-4325
▁deb	-4326
iance	-4327
▁born	-4328
▁lets	-4329
▁sucks	-4330
▁Thomas	-4331
▁knowledge	-4332
uct	-4333
▁13	-4334
▁food	-4335
▁tend	-4336
▁Wal	-4337
▁Jason	-4338
▁elect	-4339
▁includes	-4340
abr	-4341
▁Pal	-4342
▁Space	-4343
ilst	-4344
▁Jud	-4345
▁hotel	-4346
▁stock	-4347
▁Chinese	-4348
▁understanding	-4349
Any	-4350
▁Men	-4351
▁deg	-4352
▁loss	-4353
▁tour	-4354
▁craft	-4355
▁react	-4356
AM	-4357
omen	-4358
bered	-4359
SE	-4360
leep	-4361
stal	-4362
ville	-4363
▁block	-4364
▁explanation	-4365
▁wonderfully	-4366
▁sin	-4367
▁suck	-4368
▁Moore	-4369
rick	-4370
▁empt	-4371
▁blame	-4372
▁games	-4373
▁martial	-4374
▁ver	-4375
UT	-4376
▁ted	-4377
▁mine	-4378
ording	-4379
▁magnific	-4380
▁bal	-4381
▁Harris	-4382
▁noticed	-4383
yr	-4384
ugg	-4385
▁mut	-4386
▁tur	-4387
cture	-4388
▁bank	-4389
▁radio	-4390
▁reminds	-4391
hero	-4392
▁hint	-4393
▁Jerry	-4394
▁birth	-4395
▁thous	-4396
pective	-4397
▁pacing	-4398
▁surreal	-4399
ean	-4400
▁Av	-4401
▁Dam	-4402
▁ris	-4403
▁gags	-4404
▁target	-4405
aturally	-4406
▁limited	-4407
▁remarkable	-4408
arp	-4409
Well	-4410
ateg	-4411
▁lay	-4412
ademy	-4413
▁unusual	-4414
do	-4415
▁Rus	-4416
hand	-4417
oses	-4418
▁issue	-4419
▁independent	-4420
teen	-4421
▁motiv	-4422
▁anybody	-4423
▁locations	-4424
enge	-4425
uman	-4426
▁cow	-4427
ashed	-4428
irgin	-4429
▁Life	-4430
▁calls	-4431
▁speaking	-4432
especially	-4433
▁VHS	-4434
aylor	-4435
▁captured	-4436
ET	-4437
ilos	-4438
hered	-4439
▁enth	-4440
▁bland	-4441
▁stink	-4442
▁assist	-4443
▁scared	-4444
▁Brother	-4445
▁Stephen	-4446
▁accompl	-4447
▁memories	-4448
▁opposite	-4449
▁signific	-4450
iful	-4451
▁Law	-4452
ivity	-4453
▁mild	-4454
▁Kevin	-4455
▁reflect	-4456
▁hurt	-4457
▁Allen	-4458
▁learned	-4459
uh	-4460
adow	-4461
plot	-4462
atory	-4463
▁rarely	-4464
▁hundred	-4465
▁bur	-4466
▁manage	-4467
▁twenty	-4468
▁returns	-4469
bian	-4470
soci	-4471
▁buff	-4472
▁heads	-4473
▁Howard	-4474
ominated	-4475
▁Ro	-4476
▁Sus	-4477
▁Hell	-4478
▁months	-4479
▁nicely	-4480
▁engaging	-4481
▁unnecessary	-4482
▁la	-4483
▁mob	-4484
▁leader	-4485
▁protect	-4486
▁dangerous	-4487
lle	-4488
nie	-4489
▁sty	-4490
▁soap	-4491
▁debut	-4492
▁belief	-4493
▁Im	-4494
▁tem	-4495
▁proceed	-4496
ipul	-4497
plic	-4498
▁Danny	-4499
▁field	-4500
▁insane	-4501
American	-4502
▁interpret	-4503
▁responsible	-4504
▁DO	-4505
▁App	-4506
▁ran	-4507
▁hated	-4508
bad	-4509
yer	-4510
eman	-4511
▁Sil	-4512
▁army	-4513
▁regret	-4514
spe	-4515
hern	-4516
there	-4517
▁tight	-4518
▁mental	-4519
▁creating	-4520
▁Tex	-4521
▁Mike	-4522
▁minim	-4523
ruction	-4524
▁community	-4525
:<	-4526
irk	-4527
urs	-4528
▁visit	-4529
▁Master	-4530
▁flying	-4531
▁explained	-4532
▁references	-4533
Oh	-4534
yes	-4535
abor	-4536
ewis	-4537
star	-4538
▁Ter	-4539
▁Since	-4540
▁plots	-4541
▁remain	-4542
▁treated	-4543
▁neighbor	-4544
esh	-4545
stick	-4546
▁Anne	-4547
▁Brown	-4548
reck	-4549
▁arts	-4550
▁grad	-4551
▁skin	-4552
▁player	-4553
▁subtit	-4554
▁finished	-4555
▁technical	-4556
▁comparison	-4557
unter	-4558
▁efforts	-4559
▁behavior	-4560
-1	-4561
▁Ap	-4562
osen	-4563
▁Les	-4564
▁sac	-4565
▁incre	-4566
cise	-4567
oons	-4568
stit	-4569
cient	-4570
▁Sant	-4571
▁Win	-4572
▁opt	-4573
▁hits	-4574
▁frame	-4575
▁smile	-4576
▁players	-4577
John	-4578
▁floor	-4579
▁Johnny	-4580
▁contrast	-4581
▁humanity	-4582
ache	-4583
▁Hall	-4584
▁Lind	-4585
▁hadn	-4586
▁civil	-4587
ression	-4588
▁transl	-4589
▁lacking	-4590
▁card	-4591
terest	-4592
▁aband	-4593
▁Taylor	-4594
▁determ	-4595
▁boat	-4596
ennifer	-4597
▁Having	-4598
▁rubbish	-4599
▁na	-4600
▁blue	-4601
▁thats	-4602
▁summer	-4603
▁murdered	-4604
rous	-4605
▁Hit	-4606
▁boo	-4607
▁hyp	-4608
entle	-4609
▁freak	-4610
▁gotten	-4611
▁instance	-4612
vy	-4613
▁Roy	-4614
ooper	-4615
▁vehic	-4616
▁fights	-4617
▁foreign	-4618
▁survive	-4619
▁constant	-4620
osaur	-4621
▁Horror	-4622
▁Please	-4623
▁machine	-4624
No	-4625
vit	-4626
▁pet	-4627
▁wond	-4628
▁White	-4629
▁prove	-4630
▁uncon	-4631
▁lovers	-4632
▁recall	-4633
."<	-4634
▁Sin	-4635
▁Joan	-4636
▁stret	-4637
ication	-4638
▁hidden	-4639
don	-4640
▁Ol	-4641
icked	-4642
▁Pres	-4643
However	-4644
▁bigger	-4645
▁circum	-4646
▁theatre	-4647
urse	-4648
pless	-4649
▁grat	-4650
natural	-4651
ensional	-4652
▁represent	-4653
gn	-4654
▁du	-4655
▁desp	-4656
▁capture	-4657
ogy	-4658
aren	-4659
▁REA	-4660
▁Arthur	-4661
▁humans	-4662
▁England	-4663
▁criminal	-4664
rem	-4665
▁WH	-4666
rays	-4667
▁Kid	-4668
▁Alan	-4669
▁junk	-4670
▁Blood	-4671
▁Davis	-4672
▁driving	-4673
▁protagonist	-4674
tes	-4675
etic	-4676
▁net	-4677
ember	-4678
▁mixed	-4679
▁experien	-4680
▁included	-4681
▁ner	-4682
▁award	-4683
▁deals	-4684
▁keeping	-4685
▁mission	-4686
ugs	-4687
▁Max	-4688
▁cars	-4689
▁tape	-4690
▁hopes	-4691
▁partner	-4692
▁numerous	-4693
abe	-4694
▁11	-4695
▁bloody	-4696
▁finest	-4697
ser	-4698
they	-4699
ounds	-4700
▁Brian	-4701
▁below	-4702
looking	-4703
director	-4704
▁context	-4705
▁humorous	-4706
▁desperate	-4707
although	-4708
▁confront	-4709
ails	-4710
vant	-4711
▁ban	-4712
▁crappy	-4713
▁reaction	-4714
▁irritating	-4715
viron	-4716
▁Cass	-4717
▁educ	-4718
▁text	-4719
▁Eddie	-4720
▁relate	-4721
▁villains	-4722
▁intellect	-4723
▁experiment	-4724
);	-4725
Sc	-4726
ario	-4727
mare	-4728
▁Rom	-4729
thony	-4730
atives	-4731
▁spoof	-4732
▁therefore	-4733
icate	-4734
▁North	-4735
▁incomp	-4736
▁speech	-4737
▁vs	-4738
elle	-4739
ushing	-4740
▁categ	-4741
▁resol	-4742
▁unint	-4743
▁dealing	-4744
▁heroine	-4745
anity	-4746
▁advice	-4747
▁finale	-4748
▁realism	-4749
▁results	-4750
▁les	-4751
▁(2	-4752
▁Was	-4753
unted	-4754
▁pupp	-4755
screen	-4756
▁frequ	-4757
▁growing	-4758
▁revealed	-4759
▁concerned	-4760
rs	-4761
isc	-4762
▁Dor	-4763
▁Ron	-4764
▁Everyone	-4765
ores	-4766
▁pilot	-4767
▁witty	-4768
▁church	-4769
uk	-4770
▁Dem	-4771
▁arm	-4772
▁winning	-4773
▁nonsense	-4774
irm	-4775
▁guns	-4776
▁Those	-4777
▁pulled	-4778
▁window	-4779
▁officer	-4780
▁circumst	-4781
rical	-4782
▁cuts	-4783
▁shop	-4784
▁Death	-4785
▁owner	-4786
POILERS	-4787
▁philos	-4788
▁skills	-4789
fortable	-4790
apl	-4791
sen	-4792
umps	-4793
▁fate	-4794
▁talents	-4795
▁terribly	-4796
ued	-4797
ques	-4798
▁ing	-4799
▁Capt	-4800
▁earn	-4801
▁Louis	-4802
▁stereotypes	-4803
ante	-4804
▁bot	-4805
▁goof	-4806
▁steal	-4807
▁ordinary	-4808
ama	-4809
rad	-4810
sell	-4811
porary	-4812
▁Wayne	-4813
▁troub	-4814
▁assass	-4815
unn	-4816
▁Sn	-4817
▁gru	-4818
▁sed	-4819
alling	-4820
▁print	-4821
▁sheer	-4822
▁sentiment	-4823
▁discovered	-4824
zan	-4825
▁Out	-4826
urity	-4827
▁safe	-4828
▁animal	-4829
▁consist	-4830
OL	-4831
▁Wat	-4832
▁Cent	-4833
▁teach	-4834
rifying	-4835
▁Andrew	-4836
▁toward	-4837
▁Spanish	-4838
▁environ	-4839
???	-4840
ulf	-4841
ups	-4842
▁Far	-4843
ashes	-4844
▁France	-4845
▁forces	-4846
▁regular	-4847
pir	-4848
▁fif	-4849
anned	-4850
▁woods	-4851
▁monsters	-4852
▁received	-4853
While	-4854
worth	-4855
edding	-4856
▁manipul	-4857
▁starting	-4858
▁pretentious	-4859
▁Hay	-4860
▁lat	-4861
▁cable	-4862
▁study	-4863
▁expert	-4864
▁remembered	-4865
▁pu	-4866
ruct	-4867
▁ens	-4868
▁Sean	-4869
▁chore	-4870
▁somebody	-4871
▁psychological	-4872
Re	-4873
vest	-4874
▁Jose	-4875
▁levels	-4876
▁continues	-4877
▁genuinely	-4878
▁teenagers	-4879
▁Guy	-4880
ennis	-4881
▁Eric	-4882
▁bath	-4883
▁mini	-4884
▁Lynch	-4885
▁cruel	-4886
▁media	-4887
arently	-4888
▁intent	-4889
ban	-4890
They	-4891
core	-4892
▁fle	-4893
▁arch	-4894
▁African	-4895
▁attitude	-4896
▁Mrs	-4897
▁Val	-4898
▁fra	-4899
▁Barry	-4900
▁Columb	-4901
▁heroes	-4902
▁princi	-4903
.5	-4904
mary	-4905
▁Chan	-4906
▁park	-4907
▁ring	-4908
reedom	-4909
▁empty	-4910
▁paper	-4911
▁breaks	-4912
▁corrupt	-4913
ILL	-4914
bell	-4915
abeth	-4916
▁kiss	-4917
▁Texas	-4918
▁miser	-4919
▁failure	-4920
▁unfunny	-4921
nam	-4922
▁Del	-4923
▁Haw	-4924
▁Nick	-4925
▁disp	-4926
▁model	-4927
▁associ	-4928
tw	-4929
glas	-4930
ilies	-4931
▁green	-4932
▁kinda	-4933
▁display	-4934
▁morning	-4935
ads	-4936
▁Okay	-4937
▁opens	-4938
▁organ	-4939
▁charism	-4940
▁visuals	-4941
▁strength	-4942
idge	-4943
iens	-4944
kins	-4945
ribut	-4946
▁Carr	-4947
▁EVER	-4948
▁trib	-4949
▁saved	-4950
▁singer	-4951
▁European	-4952
▁reviewers	-4953
▁spectacular	-4954
▁ic	-4955
athan	-4956
▁Mont	-4957
ivered	-4958
▁desire	-4959
▁wealth	-4960
▁connection	-4961
point	-4962
▁feet	-4963
▁site	-4964
▁cameo	-4965
alloween	-4966
▁existence	-4967
iy	-4968
bur	-4969
anny	-4970
some	-4971
ueen	-4972
ulous	-4973
▁cant	-4974
▁fund	-4975
▁speed	-4976
▁truck	-4977
hearted	-4978
▁edited	-4979
▁sucked	-4980
▁distract	-4981
▁perspective	-4982
top	-4983
▁imagin	-4984
▁relief	-4985
▁satire	-4986
▁challeng	-4987
With	-4988
agal	-4989
wolf	-4990
After	-4991
▁gory	-4992
▁grace	-4993
▁occasionally	-4994
Rob	-4995
acc	-4996
luding	-4997
▁range	-4998
▁described	-4999
▁generation	-5000
▁magnificent	-5001
sec	-5002
▁Li	-5003
▁ju	-5004
▁inh	-5005
acting	-5006
▁frank	-5007
▁veter	-5008
▁Island	-5009
▁overly	-5010
▁unable	-5011
II	-5012
iro	-5013
isa	-5014
hent	-5015
▁pit	-5016
▁Viet	-5017
▁seat	-5018
▁Lewis	-5019
▁marry	-5020
▁evidence	-5021
▁contrived	-5022
ube	-5023
orious	-5024
▁decade	-5025
▁discovers	-5026
ae	-5027
iser	-5028
ether	-5029
iling	-5030
▁Kenn	-5031
▁hall	-5032
▁Thank	-5033
▁dated	-5034
▁lesson	-5035
▁decision	-5036
▁unrealistic	-5037
aming	-5038
▁sole	-5039
▁vote	-5040
▁dreadful	-5041
away	-5042
▁Jan	-5043
▁tack	-5044
▁higher	-5045
uls	-5046
▁parody	-5047
ometimes	-5048
▁connect	-5049
ault	-5050
▁grew	-5051
▁grown	-5052
▁involves	-5053
RA	-5054
▁/>1	-5055
▁warning	-5056
▁Australian	-5057
fit	-5058
▁syn	-5059
anged	-5060
ching	-5061
▁Hart	-5062
▁Wild	-5063
▁press	-5064
▁Anthony	-5065
▁shallow	-5066
▁combination	-5067
aybe	-5068
▁cash	-5069
▁screw	-5070
▁research	-5071
▁Es	-5072
▁IT	-5073
▁sake	-5074
▁Before	-5075
▁flashbacks	-5076
▁originally	-5077
omed	-5078
▁fal	-5079
▁fly	-5080
▁obl	-5081
aplin	-5082
▁gonna	-5083
▁uncom	-5084
▁altern	-5085
▁Douglas	-5086
▁delivered	-5087
▁BBC	-5088
▁Nic	-5089
▁sun	-5090
▁obsc	-5091
▁Asian	-5092
▁whilst	-5093
nox	-5094
▁60	-5095
▁Ver	-5096
▁bear	-5097
▁types	-5098
▁choose	-5099
finitely	-5100
▁creates	-5101
▁extraord	-5102
asm	-5103
lear	-5104
pent	-5105
▁Lord	-5106
▁snow	-5107
▁yeah	-5108
▁Which	-5109
▁marvel	-5110
UN	-5111
▁NO	-5112
▁di	-5113
outs	-5114
▁vac	-5115
▁logic	-5116
▁provided	-5117
▁teenager	-5118
ym	-5119
!).	-5120
▁cyn	-5121
▁nin	-5122
ordon	-5123
▁Look	-5124
▁peace	-5125
▁Second	-5126
▁gangster	-5127
▁featuring	-5128
▁delightful	-5129
GE	-5130
atra	-5131
▁Andy	-5132
▁Again	-5133
▁cares	-5134
▁theaters	-5135
rix	-5136
▁Mal	-5137
▁Gary	-5138
▁Julie	-5139
▁judge	-5140
▁proved	-5141
▁football	-5142
arc	-5143
Also	-5144
▁dry	-5145
▁tor	-5146
theless	-5147
▁Morgan	-5148
▁asking	-5149
▁families	-5150
ilty	-5151
▁vul	-5152
▁send	-5153
▁Franc	-5154
▁built	-5155
▁loses	-5156
▁Keaton	-5157
▁broken	-5158
▁capable	-5159
▁laughter	-5160
▁amateurish	-5161
mo	-5162
tle	-5163
▁25	-5164
▁Int	-5165
▁corny	-5166
▁sword	-5167
▁advert	-5168
▁assume	-5169
▁dressed	-5170
oken	-5171
▁Ell	-5172
▁sea	-5173
uther	-5174
▁THIS	-5175
hentic	-5176
▁punch	-5177
▁refres	-5178
▁graphic	-5179
▁believes	-5180
▁underrated	-5181
▁sympathetic	-5182
▁da	-5183
▁Mic	-5184
ights	-5185
▁skill	-5186
▁necess	-5187
▁essentially	-5188
law	-5189
▁La	-5190
Then	-5191
mble	-5192
othy	-5193
▁YOU	-5194
▁sal	-5195
▁redu	-5196
▁Jimmy	-5197
osexual	-5198
▁allows	-5199
▁frustr	-5200
▁meeting	-5201
▁brilliantly	-5202
▁Luc	-5203
▁gross	-5204
▁Hitler	-5205
▁traditional	-5206
IGH	-5207
▁talks	-5208
▁Academy	-5209
▁curious	-5210
▁emotionally	-5211
▁Daniel	-5212
▁majority	-5213
owell	-5214
entionally	-5215
▁creatures	-5216
▁emer	-5217
▁inex	-5218
▁glass	-5219
▁village	-5220
▁treatment	-5221
▁environment	-5222
RI	-5223
usi	-5224
aret	-5225
▁Mer	-5226
ients	-5227
▁consequ	-5228
▁Jennifer	-5229
▁executed	-5230
▁ultimate	-5231
ums	-5232
▁Jess	-5233
▁Last	-5234
▁king	-5235
ulp	-5236
yal	-5237
▁Rod	-5238
▁bat	-5239
First	-5240
iforn	-5241
usive	-5242
▁Lady	-5243
▁scar	-5244
▁inept	-5245
▁eating	-5246
▁portrays	-5247
Ar	-5248
ba	-5249
LLY	-5250
ummy	-5251
▁Wars	-5252
▁vide	-5253
formed	-5254
uitous	-5255
▁Albert	-5256
▁inspir	-5257
▁propag	-5258
▁sitcom	-5259
▁tedious	-5260
▁thoughts	-5261
rate	-5262
▁Camp	-5263
angers	-5264
▁naive	-5265
▁rescue	-5266
▁steals	-5267
▁handsome	-5268
▁expression	-5269
▁embarrassing	-5270
ls	-5271
lly	-5272
▁Leon	-5273
▁purch	-5274
▁seven	-5275
▁colour	-5276
▁powers	-5277
gen	-5278
▁hur	-5279
▁Miche	-5280
▁bodies	-5281
▁endless	-5282
Sp	-5283
tain	-5284
▁Cle	-5285
▁court	-5286
▁harsh	-5287
▁revolution	-5288
▁circumstances	-5289
▁Coll	-5290
▁tick	-5291
▁crack	-5292
▁guest	-5293
▁Chaplin	-5294
▁screaming	-5295
▁controvers	-5296
▁bag	-5297
▁Time	-5298
▁Broad	-5299
▁caused	-5300
▁compan	-5301
▁)	-5302
oyd	-5303
▁gas	-5304
amily	-5305
▁Sund	-5306
stream	-5307
▁accomp	-5308
▁excited	-5309
▁promise	-5310
▁reviewer	-5311
ule	-5312
▁Pac	-5313
▁vol	-5314
▁Rose	-5315
▁involve	-5316
▁disgusting	-5317
▁Mil	-5318
▁fict	-5319
▁establ	-5320
▁viewed	-5321
▁walked	-5322
▁counter	-5323
▁streets	-5324
▁Anderson	-5325
▁pal	-5326
arian	-5327
imate	-5328
▁grade	-5329
▁passed	-5330
▁murdere	-5331
▁refreshing	-5332
made	-5333
ucky	-5334
▁van	-5335
ichol	-5336
▁ages	-5337
aturday	-5338
izabeth	-5339
▁Germany	-5340
▁sequels	-5341
▁entertained	-5342
hem	-5343
▁Trek	-5344
▁invent	-5345
▁voices	-5346
▁identity	-5347
▁standing	-5348
han	-5349
▁Ku	-5350
▁SH	-5351
▁Ted	-5352
▁compos	-5353
▁rental	-5354
▁freedom	-5355
▁bringing	-5356
▁normally	-5357
▁Matt	-5358
▁costs	-5359
▁lousy	-5360
▁sharp	-5361
▁routine	-5362
itiz	-5363
lder	-5364
▁Wow	-5365
tended	-5366
ifornia	-5367
▁convey	-5368
phy	-5369
done	-5370
▁proud	-5371
ulation	-5372
▁ladies	-5373
▁produce	-5374
▁horribly	-5375
▁authentic	-5376
za	-5377
class	-5378
▁fare	-5379
▁lone	-5380
▁Gordon	-5381
▁stopped	-5382
▁strongly	-5383
inis	-5384
▁Gene	-5385
▁appl	-5386
▁ende	-5387
▁spin	-5388
▁conce	-5389
▁forth	-5390
▁table	-5391
tr	-5392
She	-5393
dom	-5394
nal	-5395
▁fame	-5396
▁rend	-5397
▁soph	-5398
▁plans	-5399
▁weeks	-5400
ausible	-5401
▁vehicle	-5402
ashington	-5403
▁pleasant	-5404
▁technology	-5405
IR	-5406
fl	-5407
urns	-5408
▁Pre	-5409
ummer	-5410
viously	-5411
▁Wilson	-5412
▁dubbed	-5413
▁suffering	-5414
▁contemporary	-5415
uns	-5416
ura	-5417
roll	-5418
ethod	-5419
▁Kong	-5420
▁Jesus	-5421
▁walks	-5422
ogether	-5423
▁saving	-5424
▁matters	-5425
▁BE	-5426
▁/>2	-5427
oting	-5428
ungle	-5429
▁Cast	-5430
▁bond	-5431
▁zero	-5432
▁source	-5433
atherine	-5434
▁subtitles	-5435
▁experienced	-5436
ola	-5437
▁Larry	-5438
▁facts	-5439
▁Street	-5440
▁learns	-5441
▁shocked	-5442
▁criticism	-5443
▁painfully	-5444
▁qualities	-5445
▁bre	-5446
mother	-5447
▁Roman	-5448
enstein	-5449
▁dollars	-5450
▁Festival	-5451
Of	-5452
icit	-5453
▁hey	-5454
▁Cinem	-5455
▁Seagal	-5456
▁hyster	-5457
▁versions	-5458
▁whenever	-5459
▁gratuitous	-5460
▁portraying	-5461
ixt	-5462
▁Are	-5463
▁Pict	-5464
▁fits	-5465
▁excit	-5466
▁ruined	-5467
▁Univers	-5468
▁ancient	-5469
upt	-5470
whel	-5471
▁Brad	-5472
telling	-5473
▁religion	-5474
▁depressing	-5475
▁satisfying	-5476
▁Moon	-5477
▁Plus	-5478
▁harm	-5479
▁Count	-5480
▁Gener	-5481
▁spends	-5482
ij	-5483
Why	-5484
ait	-5485
mond	-5486
reek	-5487
▁Cat	-5488
cohol	-5489
▁term	-5490
taking	-5491
▁refer	-5492
▁classics	-5493
▁depicted	-5494
▁substance	-5495
onel	-5496
ynam	-5497
▁Bor	-5498
▁cas	-5499
produ	-5500
▁blow	-5501
▁center	-5502
▁cartoons	-5503
BO	-5504
"),	-5505
▁pan	-5506
orted	-5507
▁flesh	-5508
▁ideal	-5509
▁prior	-5510
▁Really	-5511
▁losing	-5512
▁largely	-5513
▁Washington	-5514
Even	-5515
aura	-5516
▁Add	-5517
▁wel	-5518
▁Comm	-5519
▁asleep	-5520
▁latest	-5521
▁enthusi	-5522
▁segment	-5523
teresting	-5524
▁unfortun	-5525
▁slapstick	-5526
avy	-5527
▁Sk	-5528
▁Fre	-5529
▁Francis	-5530
▁lesbian	-5531
▁twisted	-5532
▁descript	-5533
▁theatrical	-5534
▁Lam	-5535
otion	-5536
▁clue	-5537
inated	-5538
▁lucky	-5539
▁angles	-5540
▁inevit	-5541
▁Wr	-5542
phas	-5543
▁Dog	-5544
▁link	-5545
▁mask	-5546
▁Irish	-5547
▁Stone	-5548
▁Anyone	-5549
▁chosen	-5550
▁Barbara	-5551
▁exploitation	-5552
Fi	-5553
▁Kim	-5554
▁Rem	-5555
itter	-5556
orting	-5557
▁Jackie	-5558
▁sports	-5559
▁convince	-5560
▁experiences	-5561
mind	-5562
▁Whe	-5563
etime	-5564
▁1980	-5565
buster	-5566
▁witch	-5567
▁encounter	-5568
▁recognize	-5569
▁excitement	-5570
ENT	-5571
▁gig	-5572
▁hen	-5573
▁lie	-5574
▁pursu	-5575
▁teens	-5576
oir	-5577
▁14	-5578
umber	-5579
▁pregn	-5580
▁speaks	-5581
▁evening	-5582
▁Brothers	-5583
▁believed	-5584
▁propaganda	-5585
▁appropriate	-5586
lim	-5587
▁UK	-5588
▁Up	-5589
long	-5590
▁hol	-5591
▁batt	-5592
▁Being	-5593
▁cring	-5594
):	-5595
apes	-5596
ston	-5597
▁Sat	-5598
▁drop	-5599
▁Simon	-5600
▁sides	-5601
▁hearing	-5602
▁prostit	-5603
▁visually	-5604
▁committed	-5605
hens	-5606
kend	-5607
eness	-5608
▁revel	-5609
▁reject	-5610
BI	-5611
▁Run	-5612
▁Sur	-5613
▁1970	-5614
▁Dian	-5615
▁Does	-5616
▁unfor	-5617
▁makeup	-5618
▁suffers	-5619
▁captures	-5620
▁appealing	-5621
▁worthwhile	-5622
add	-5623
▁LA	-5624
▁VER	-5625
▁Kill	-5626
▁THAT	-5627
▁vague	-5628
▁factor	-5629
▁Captain	-5630
▁surface	-5631
▁promising	-5632
ran	-5633
▁Ty	-5634
udes	-5635
▁quir	-5636
▁idiot	-5637
▁holding	-5638
▁virtually	-5639
oly	-5640
▁TO	-5641
udic	-5642
▁Get	-5643
▁Sher	-5644
▁false	-5645
▁inner	-5646
▁price	-5647
,'	-5648
3.	-5649
▁reput	-5650
▁rough	-5651
▁multiple	-5652
▁performed	-5653
▁NE	-5654
beat	-5655
▁Long	-5656
▁core	-5657
▁semi	-5658
▁shut	-5659
▁accents	-5660
▁featured	-5661
▁movement	-5662
▁structure	-5663
▁unfortunate	-5664
Pl	-5665
▁Kore	-5666
▁rise	-5667
▁rules	-5668
▁States	-5669
▁Johnson	-5670
▁Russell	-5671
▁cutting	-5672
▁handled	-5673
▁Canadian	-5674
▁practically	-5675
▁Mir	-5676
▁Tod	-5677
ilogy	-5678
▁Much	-5679
ighter	-5680
▁Alice	-5681
▁expos	-5682
▁United	-5683
▁influence	-5684
UR	-5685
enny	-5686
fire	-5687
▁pity	-5688
▁abuse	-5689
▁chose	-5690
▁Actually	-5691
▁relatively	-5692
VE	-5693
ns	-5694
erie	-5695
olic	-5696
▁emp	-5697
▁crash	-5698
▁praise	-5699
▁incident	-5700
▁spoilers	-5701
▁nominated	-5702
cula	-5703
▁abr	-5704
opper	-5705
▁Bern	-5706
▁jail	-5707
▁Joseph	-5708
▁Patrick	-5709
▁haunting	-5710
Ne	-5711
Ste	-5712
Just	-5713
▁bound	-5714
▁enemy	-5715
raction	-5716
ressive	-5717
▁alcohol	-5718
▁frankly	-5719
▁bothered	-5720
▁position	-5721
▁2.	-5722
▁1950	-5723
▁lower	-5724
▁Holmes	-5725
▁Jewish	-5726
▁Murphy	-5727
▁blonde	-5728
▁commit	-5729
▁landsc	-5730
▁touches	-5731
▁variety	-5732
▁Watching	-5733
▁statement	-5734
▁suspenseful	-5735
▁rot	-5736
▁Full	-5737
▁spark	-5738
▁claims	-5739
▁degree	-5740
▁Finally	-5741
▁Vietnam	-5742
!),	-5743
▁Rick	-5744
▁Brand	-5745
▁rival	-5746
▁scale	-5747
outhern	-5748
umbling	-5749
▁emphas	-5750
▁initial	-5751
▁outrage	-5752
▁sympathy	-5753
▁favorites	-5754
▁offensive	-5755
ked	-5756
▁CH	-5757
ners	-5758
▁Bog	-5759
▁acqu	-5760
▁neat	-5761
▁erotic	-5762
Although	-5763
▁festival	-5764
zo	-5765
pet	-5766
oppy	-5767
▁San	-5768
▁Evil	-5769
▁Over	-5770
▁Child	-5771
▁Edward	-5772
▁arrest	-5773
▁guilty	-5774
including	-5775
▁training	-5776
▁unconvin	-5777
▁accidentally	-5778
▁conversation	-5779
▁toler	-5780
▁Broadway	-5781
▁previously	-5782
olen	-5783
▁Kate	-5784
▁cook	-5785
▁evol	-5786
▁Anton	-5787
▁poign	-5788
▁wrest	-5789
▁Africa	-5790
▁admire	-5791
▁figured	-5792
▁category	-5793
▁directly	-5794
▁realizes	-5795
ker	-5796
▁fish	-5797
itious	-5798
▁disag	-5799
▁Nichol	-5800
▁destroyed	-5801
▁surprises	-5802
▁supernatural	-5803
ION	-5804
ago	-5805
▁Eve	-5806
▁Sal	-5807
▁myth	-5808
▁sorts	-5809
lection	-5810
▁gentle	-5811
▁exagger	-5812
▁obsessed	-5813
▁everywhere	-5814
aze	-5815
umm	-5816
▁16	-5817
▁SE	-5818
▁Sid	-5819
▁Mean	-5820
▁Vinc	-5821
▁hack	-5822
▁wear	-5823
▁spite	-5824
▁serves	-5825
▁execution	-5826
▁melodrama	-5827
▁forgettable	-5828
ari	-5829
eds	-5830
chan	-5831
ship	-5832
umph	-5833
▁cab	-5834
▁Yeah	-5835
▁heck	-5836
▁till	-5837
▁camer	-5838
▁graph	-5839
▁trick	-5840
▁method	-5841
▁confess	-5842
▁section	-5843
▁wedding	-5844
▁demonstr	-5845
▁unlikely	-5846
▁Elizabeth	-5847
▁intellectual	-5848
▁extraordinary	-5849
orb	-5850
▁atro	-5851
rehens	-5852
▁Roger	-5853
▁dirty	-5854
▁pulls	-5855
▁wound	-5856
▁bitter	-5857
▁Roberts	-5858
▁continuity	-5859
low	-5860
mal	-5861
uty	-5862
▁Jac	-5863
▁arg	-5864
craft	-5865
▁Anna	-5866
▁Hope	-5867
▁boot	-5868
assion	-5869
▁ludic	-5870
▁polic	-5871
▁costume	-5872
▁complain	-5873
▁presents	-5874
▁Min	-5875
▁Old	-5876
▁ded	-5877
▁farm	-5878
▁swim	-5879
ipping	-5880
▁Avoid	-5881
▁health	-5882
▁besides	-5883
▁massive	-5884
▁required	-5885
---	-5886
ato	-5887
▁Comp	-5888
arning	-5889
▁enter	-5890
▁minds	-5891
▁contact	-5892
▁hanging	-5893
▁profound	-5894
▁Halloween	-5895
cr	-5896
▁jeal	-5897
▁stom	-5898
apping	-5899
▁Parker	-5900
▁crying	-5901
▁Eastwood	-5902
▁prepared	-5903
chen	-5904
cons	-5905
loved	-5906
world	-5907
▁stalk	-5908
▁deaths	-5909
▁improve	-5910
▁private	-5911
▁effectively	-5912
aust	-5913
ulci	-5914
▁Art	-5915
enced	-5916
▁Hoff	-5917
▁task	-5918
▁excess	-5919
▁covered	-5920
▁politics	-5921
▁California	-5922
ibal	-5923
ocal	-5924
▁ALL	-5925
▁Rad	-5926
▁flo	-5927
▁Three	-5928
▁paced	-5929
▁trapped	-5930
▁Saturday	-5931
ga	-5932
rie	-5933
ethe	-5934
amous	-5935
ourne	-5936
▁Port	-5937
▁Rain	-5938
▁cust	-5939
▁skip	-5940
▁Sadly	-5941
▁worry	-5942
written	-5943
▁Dennis	-5944
▁remotely	-5945
▁Apparently	-5946
").	-5947
rol	-5948
▁Us	-5949
fess	-5950
▁bab	-5951
▁dress	-5952
▁simpl	-5953
▁driver	-5954
▁renting	-5955
▁reporter	-5956
▁reputation	-5957
ito	-5958
▁fix	-5959
▁ice	-5960
ipped	-5961
▁flow	-5962
▁pile	-5963
▁narration	-5964
▁frightening	-5965
▁stereotypical	-5966
orig	-5967
▁Had	-5968
▁cris	-5969
▁extras	-5970
atically	-5971
▁imagery	-5972
▁reminis	-5973
▁service	-5974
▁veteran	-5975
▁abandoned	-5976
ems	-5977
▁Cas	-5978
▁Ire	-5979
▁MST	-5980
▁assum	-5981
▁repet	-5982
▁Channel	-5983
▁concert	-5984
▁sensitive	-5985
ety	-5986
cies	-5987
▁MOV	-5988
▁status	-5989
▁focused	-5990
▁seasons	-5991
▁distinct	-5992
dim	-5993
▁Ob	-5994
wing	-5995
▁/>*	-5996
▁ash	-5997
▁Cost	-5998
▁sche	-5999
▁tiny	-6000
▁upset	-6001
▁Donald	-6002
▁nostal	-6003
breaking	-6004
▁courage	-6005
▁greater	-6006
▁accompan	-6007
▁Sometimes	-6008
iat	-6009
▁Dun	-6010
▁sne	-6011
▁Take	-6012
▁wins	-6013
▁hired	-6014
▁mistakes	-6015
▁fictional	-6016
GM	-6017
IM	-6018
▁USA	-6019
▁Bull	-6020
▁Dean	-6021
▁Brooks	-6022
▁tremend	-6023
▁convinced	-6024
ani	-6025
zil	-6026
▁Bon	-6027
▁Off	-6028
▁Beat	-6029
▁encou	-6030
▁addict	-6031
▁closer	-6032
▁device	-6033
▁Without	-6034
▁arrives	-6035
▁concent	-6036
▁weapons	-6037
▁painting	-6038
▁universe	-6039
▁Especially	-6040
▁mainstream	-6041
▁fu	-6042
IGHT	-6043
ooth	-6044
▁ske	-6045
▁wid	-6046
arden	-6047
▁cous	-6048
▁ruin	-6049
▁Enter	-6050
▁beach	-6051
▁Carpent	-6052
▁Through	-6053
▁calling	-6054
▁critical	-6055
▁distribut	-6056
▁interviews	-6057
bit	-6058
▁sho	-6059
oster	-6060
▁VERY	-6061
▁cann	-6062
▁stolen	-6063
▁funnier	-6064
▁particip	-6065
▁Tor	-6066
▁Wor	-6067
▁Wall	-6068
▁yell	-6069
▁Carol	-6070
▁India	-6071
▁deeper	-6072
▁stayed	-6073
etheless	-6074
▁overlook	-6075
▁depiction	-6076
▁homosexual	-6077
▁occasional	-6078
Cl	-6079
liver	-6080
plays	-6081
▁Hong	-6082
▁Lane	-6083
▁lift	-6084
▁sink	-6085
▁vast	-6086
uclear	-6087
▁captiv	-6088
▁focuses	-6089
▁heavily	-6090
▁scenario	-6091
▁President	-6092
asp	-6093
och	-6094
laim	-6095
▁bore	-6096
▁raised	-6097
▁choices	-6098
▁decades	-6099
▁sounded	-6100
▁vampires	-6101
▁department	-6102
acre	-6103
▁unp	-6104
Every	-6105
iform	-6106
▁Vamp	-6107
▁placed	-6108
▁closing	-6109
▁offered	-6110
▁preview	-6111
▁legendary	-6112
▁0	-6113
▁Fer	-6114
▁Under	-6115
▁chair	-6116
▁colors	-6117
▁figures	-6118
▁gruesome	-6119
can	-6120
igr	-6121
ils	-6122
eter	-6123
omer	-6124
▁ain	-6125
ilton	-6126
▁Back	-6127
▁bird	-6128
▁isol	-6129
▁puzz	-6130
spired	-6131
▁dynam	-6132
▁guard	-6133
▁During	-6134
▁amazed	-6135
▁buying	-6136
▁univers	-6137
▁necessarily	-6138
sm	-6139
rier	-6140
udge	-6141
after	-6142
▁Your	-6143
▁reun	-6144
▁tong	-6145
▁Fulci	-6146
▁teeth	-6147
▁Tarzan	-6148
▁gritty	-6149
▁mildly	-6150
▁suffer	-6151
▁Hoffman	-6152
▁Mexican	-6153
▁reveals	-6154
▁stomach	-6155
▁explains	-6156
▁atrocious	-6157
▁downright	-6158
wy	-6159
Man	-6160
▁Pri	-6161
▁Each	-6162
▁Play	-6163
▁driven	-6164
▁command	-6165
▁killers	-6166
▁dinosaur	-6167
▁overwhel	-6168
▁contribut	-6169
gon	-6170
▁Ros	-6171
▁fab	-6172
▁Care	-6173
coming	-6174
▁contest	-6175
▁sisters	-6176
iano	-6177
▁Tur	-6178
▁gre	-6179
▁Phill	-6180
▁blown	-6181
▁kinds	-6182
▁loyal	-6183
▁paint	-6184
▁paying	-6185
▁throws	-6186
▁murderer	-6187
▁understood	-6188
ez	-6189
onest	-6190
▁Baby	-6191
▁Helen	-6192
▁anger	-6193
▁demand	-6194
▁according	-6195
▁unconvincing	-6196
Do	-6197
▁1.	-6198
amie	-6199
case	-6200
ella	-6201
elve	-6202
▁scr	-6203
asant	-6204
umble	-6205
▁None	-6206
▁Clark	-6207
▁obnox	-6208
▁intens	-6209
▁screening	-6210
ona	-6211
▁Ash	-6212
▁Die	-6213
▁dom	-6214
▁fil	-6215
▁(199	-6216
▁Army	-6217
▁Mill	-6218
▁wand	-6219
Anyway	-6220
▁format	-6221
▁summary	-6222
▁uninteresting	-6223
"?	-6224
gie	-6225
loyd	-6226
▁Air	-6227
▁Scar	-6228
▁crude	-6229
▁serve	-6230
▁changing	-6231
▁faithful	-6232
▁listening	-6233
▁complicated	-6234
Yes	-6235
imm	-6236
▁Bu	-6237
▁SO	-6238
ashy	-6239
aude	-6240
rees	-6241
▁China	-6242
▁spell	-6243
▁cheese	-6244
▁Dracula	-6245
▁designed	-6246
▁succeeds	-6247
▁naturally	-6248
aki	-6249
▁17	-6250
▁Det	-6251
▁Nat	-6252
inals	-6253
▁Blue	-6254
belief	-6255
▁Beaut	-6256
▁Walter	-6257
▁pregnant	-6258
IA	-6259
chy	-6260
obb	-6261
walk	-6262
ombie	-6263
▁mans	-6264
▁inhab	-6265
▁causes	-6266
▁uniform	-6267
▁originality	-6268
sch	-6269
eral	-6270
▁192	-6271
▁via	-6272
isher	-6273
▁Later	-6274
▁chief	-6275
▁views	-6276
ception	-6277
▁betray	-6278
▁contain	-6279
▁minimal	-6280
▁trilogy	-6281
▁combined	-6282
▁Sun	-6283
▁log	-6284
iques	-6285
▁Hill	-6286
▁campy	-6287
▁coinc	-6288
▁uncle	-6289
▁lawyer	-6290
▁timing	-6291
▁winner	-6292
▁passing	-6293
▁ludicrous	-6294
CT	-6295
aver	-6296
noon	-6297
▁Ara	-6298
▁FBI	-6299
▁Luke	-6300
▁Julia	-6301
▁anime	-6302
▁grave	-6303
▁handle	-6304
▁integr	-6305
▁lights	-6306
▁Sinatra	-6307
▁prevent	-6308
▁significant	-6309
ugos	-6310
▁***	-6311
▁Nazi	-6312
▁seek	-6313
▁Betty	-6314
▁Friday	-6315
▁facial	-6316
▁scares	-6317
▁haunted	-6318
dimensional	-6319
▁Dep	-6320
▁ade	-6321
ioned	-6322
▁WWII	-6323
▁prime	-6324
▁quirky	-6325
▁warned	-6326
▁magical	-6327
gia	-6328
nery	-6329
▁ANY	-6330
▁Son	-6331
▁rub	-6332
▁irre	-6333
▁nude	-6334
▁page	-6335
▁divor	-6336
▁native	-6337
▁shorts	-6338
▁security	-6339
▁description	-6340
ids	-6341
char	-6342
▁/>4	-6343
▁McG	-6344
▁Berg	-6345
▁arms	-6346
ulated	-6347
▁brave	-6348
▁goofy	-6349
▁river	-6350
▁Doctor	-6351
▁charge	-6352
▁evident	-6353
▁subsequ	-6354
▁breaking	-6355
▁attempting	-6356
girl	-6357
erved	-6358
▁Swed	-6359
▁dogs	-6360
▁Camer	-6361
▁Grand	-6362
▁liber	-6363
▁stays	-6364
Another	-6365
▁strict	-6366
▁answers	-6367
▁capital	-6368
▁delivery	-6369
▁throwing	-6370
▁appreciated	-6371
pr	-6372
.)<	-6373
▁AL	-6374
From	-6375
acle	-6376
fall	-6377
▁fet	-6378
▁blat	-6379
▁thro	-6380
▁Sunday	-6381
▁Wonder	-6382
▁forest	-6383
▁examples	-6384
▁Carpenter	-6385
▁amazingly	-6386
▁condition	-6387
ida	-6388
usty	-6389
▁Pitt	-6390
▁jobs	-6391
▁chuck	-6392
▁advant	-6393
▁reward	-6394
▁rights	-6395
▁carried	-6396
▁expressions	-6397
from	-6398
▁Inc	-6399
▁MGM	-6400
▁(200	-6401
▁fond	-6402
▁metap	-6403
▁Miller	-6404
▁struggling	-6405
▁inspiration	-6406
hett	-6407
▁tear	-6408
called	-6409
▁Welles	-6410
▁extent	-6411
........	-6412
▁comical	-6413
▁patient	-6414
▁properly	-6415
▁Meanwhile	-6416
▁Otherwise	-6417
jud	-6418
iable	-6419
style	-6420
▁Inde	-6421
▁Plan	-6422
▁seve	-6423
espite	-6424
▁Grant	-6425
▁ignor	-6426
▁halfway	-6427
▁disagree	-6428
▁regarding	-6429
ds	-6430
den	-6431
----	-6432
kind	-6433
▁Ret	-6434
osity	-6435
▁Kurt	-6436
▁join	-6437
▁dozen	-6438
▁aliens	-6439
▁sophistic	-6440
▁desperately	-6441
▁introduction	-6442
ada	-6443
mod	-6444
zed	-6445
▁Pa	-6446
ught	-6447
▁eth	-6448
▁Cage	-6449
▁exer	-6450
▁rule	-6451
▁surf	-6452
▁elder	-6453
▁incor	-6454
▁racist	-6455
▁theory	-6456
▁weekend	-6457
▁everyday	-6458
▁disbelief	-6459
▁storytelling	-6460
hib	-6461
▁NY	-6462
▁nu	-6463
▁Jay	-6464
▁(198	-6465
▁butt	-6466
horror	-6467
▁Lloyd	-6468
▁Sarah	-6469
▁Direct	-6470
▁novels	-6471
▁carries	-6472
▁nuclear	-6473
▁starred	-6474
iner	-6475
▁gar	-6476
▁inj	-6477
▁(197	-6478
idents	-6479
▁basis	-6480
▁dinner	-6481
▁drinking	-6482
▁obnoxious	-6483
▁breathtaking	-6484
OOD	-6485
nda	-6486
▁Da	-6487
cean	-6488
ianc	-6489
▁/>(	-6490
▁End	-6491
▁Rac	-6492
actic	-6493
adays	-6494
▁Cann	-6495
▁Kane	-6496
▁guar	-6497
▁About	-6498
▁drives	-6499
▁helping	-6500
▁enjoying	-6501
▁Mod	-6502
▁Sav	-6503
▁mas	-6504
▁tun	-6505
plend	-6506
▁Goth	-6507
▁mere	-6508
▁10/10	-6509
▁Charl	-6510
ounding	-6511
▁Burton	-6512
▁Knight	-6513
▁Warner	-6514
▁racism	-6515
▁related	-6516
▁touched	-6517
Mar	-6518
nes	-6519
beit	-6520
iber	-6521
▁adop	-6522
▁diss	-6523
▁Sovie	-6524
▁buddy	-6525
▁cheer	-6526
▁Cooper	-6527
▁Mickey	-6528
▁letter	-6529
OP	-6530
his	-6531
▁Ow	-6532
▁Cru	-6533
▁bik	-6534
ifies	-6535
igned	-6536
▁bill	-6537
▁Italy	-6538
▁execut	-6539
▁heaven	-6540
▁baseball	-6541
▁stupidity	-6542
▁transform	-6543
▁productions	-6544
Le	-6545
..."	-6546
iled	-6547
▁Fin	-6548
▁LOV	-6549
▁blah	-6550
▁tree	-6551
▁franch	-6552
▁ignore	-6553
▁served	-6554
▁titles	-6555
utherland	-6556
▁mentally	-6557
▁assistant	-6558
▁interpretation	-6559
▁Our	-6560
▁Rec	-6561
▁Cole	-6562
▁Come	-6563
▁mock	-6564
▁MOVIE	-6565
▁jungle	-6566
▁parall	-6567
▁purely	-6568
▁credible	-6569
▁retarded	-6570
▁reference	-6571
▁credibility	-6572
Is	-6573
onda	-6574
roph	-6575
▁rev	-6576
▁Marg	-6577
▁Wind	-6578
▁hipp	-6579
ingers	-6580
inging	-6581
liners	-6582
▁picks	-6583
▁flawed	-6584
something	-6585
CK	-6586
▁Have	-6587
▁cand	-6588
▁entry	-6589
▁Argent	-6590
▁psycho	-6591
▁turkey	-6592
▁ratings	-6593
▁cultural	-6594
Am	-6595
bra	-6596
aped	-6597
cker	-6598
▁Arm	-6599
▁Kar	-6600
iamond	-6601
tending	-6602
▁caring	-6603
▁beloved	-6604
▁miscast	-6605
▁Australia	-6606
▁controversial	-6607
fits	-6608
▁Mom	-6609
▁rank	-6610
▁wears	-6611
▁Movies	-6612
▁plastic	-6613
▁comedian	-6614
▁revolves	-6615
▁settings	-6616
▁determined	-6617
▁reminiscent	-6618
▁Sir	-6619
▁bow	-6620
▁fac	-6621
▁Karl	-6622
▁dude	-6623
▁unbe	-6624
▁Krist	-6625
▁Person	-6626
▁attacks	-6627
▁medical	-6628
▁accepted	-6629
▁treasure	-6630
▁technique	-6631
tt	-6632
vo	-6633
▁cy	-6634
weet	-6635
wyck	-6636
ouses	-6637
▁Mass	-6638
▁argu	-6639
▁hole	-6640
▁poet	-6641
▁Music	-6642
atching	-6643
▁awards	-6644
▁lonely	-6645
ographer	-6646
▁escapes	-6647
ibilities	-6648
11	-6649
▁Cap	-6650
▁Amaz	-6651
▁Stud	-6652
▁Santa	-6653
▁stunt	-6654
▁tense	-6655
▁deadly	-6656
▁exists	-6657
▁alright	-6658
▁amongst	-6659
▁journal	-6660
▁welcome	-6661
ams	-6662
▁HA	-6663
lynn	-6664
olph	-6665
except	-6666
▁shark	-6667
▁topic	-6668
Michael	-6669
▁flight	-6670
▁shadow	-6671
▁ashamed	-6672
▁immense	-6673
▁rolling	-6674
▁attacked	-6675
▁interact	-6676
▁sinister	-6677
▁countries	-6678
▁international	-6679
BS	-6680
aa	-6681
orc	-6682
ease	-6683
▁cha	-6684
utter	-6685
▁grim	-6686
antino	-6687
▁Woody	-6688
▁admir	-6689
▁backd	-6690
▁indie	-6691
▁shape	-6692
▁announ	-6693
▁castle	-6694
▁replaced	-6695
▁struggles	-6696
▁BL	-6697
rial	-6698
▁Lat	-6699
▁Los	-6700
▁Ren	-6701
▁ton	-6702
ronic	-6703
▁libr	-6704
▁Devil	-6705
▁Karen	-6706
▁nation	-6707
▁resist	-6708
▁sheriff	-6709
▁learning	-6710
▁separate	-6711
▁confusion	-6712
▁Oz	-6713
aron	-6714
▁Produ	-6715
▁Philip	-6716
▁criminals	-6717
▁perfection	-6718
▁underground	-6719
iger	-6720
▁Lisa	-6721
▁fulf	-6722
▁disgu	-6723
forward	-6724
▁Mexico	-6725
▁anticip	-6726
▁balance	-6727
▁deliber	-6728
▁greatly	-6729
▁carrying	-6730
▁graphics	-6731
▁intensity	-6732
Let	-6733
die	-6734
fest	-6735
▁Hal	-6736
▁ped	-6737
▁tag	-6738
plete	-6739
▁risk	-6740
▁Susan	-6741
▁aston	-6742
▁miles	-6743
▁stops	-6744
▁mature	-6745
▁Bergman	-6746
▁stylish	-6747
▁guessing	-6748
▁horrific	-6749
▁advantage	-6750
▁afternoon	-6751
▁thousands	-6752
gypt	-6753
▁60'	-6754
inate	-6755
vised	-6756
▁cock	-6757
▁kung	-6758
▁nose	-6759
▁remo	-6760
▁suffe	-6761
iveness	-6762
▁Unlike	-6763
▁adding	-6764
▁tongue	-6765
▁poignant	-6766
▁Sutherland	-6767
▁embarrassed	-6768
▁exceptional	-6769
fun	-6770
ello	-6771
rett	-6772
sett	-6773
▁raw	-6774
chell	-6775
stery	-6776
▁Chic	-6777
▁tune	-6778
▁cance	-6779
ustrated	-6780
▁Kennedy	-6781
▁Vincent	-6782
▁cynical	-6783
▁dislike	-6784
▁spoiler	-6785
▁gripping	-6786
50	-6787
▁Ha	-6788
▁MU	-6789
▁Ra	-6790
▁ul	-6791
ingu	-6792
▁Arn	-6793
▁hip	-6794
adows	-6795
opath	-6796
Christ	-6797
▁Along	-6798
▁angle	-6799
▁Pacino	-6800
▁Prince	-6801
▁sleazy	-6802
▁network	-6803
▁Something	-6804
By	-6805
▁Ven	-6806
▁Lost	-6807
▁lazy	-6808
▁letting	-6809
▁wealthy	-6810
ification	-6811
▁Superman	-6812
▁mindless	-6813
▁innocence	-6814
5.	-6815
Dav	-6816
rama	-6817
alley	-6818
▁Cons	-6819
▁Land	-6820
▁phen	-6821
▁unre	-6822
▁Award	-6823
▁equal	-6824
▁magaz	-6825
ishment	-6826
▁Freddy	-6827
▁opened	-6828
▁weight	-6829
gettable	-6830
▁idiotic	-6831
▁scripts	-6832
▁mountain	-6833
▁challenge	-6834
▁presentation	-6835
▁screenwriter	-6836
hard	-6837
▁Alt	-6838
▁nom	-6839
story	-6840
▁Caine	-6841
▁Water	-6842
▁arrog	-6843
▁innov	-6844
oration	-6845
▁Intern	-6846
▁national	-6847
pal	-6848
▁Cry	-6849
chant	-6850
▁Reyn	-6851
▁laid	-6852
ogical	-6853
▁Class	-6854
▁Things	-6855
▁portra	-6856
▁artists	-6857
▁lovable	-6858
▁consists	-6859
▁suggests	-6860
▁frequently	-6861
bid	-6862
aste	-6863
▁bon	-6864
mates	-6865
▁Flor	-6866
semble	-6867
▁clips	-6868
▁fairy	-6869
▁finan	-6870
▁jumps	-6871
▁Besides	-6872
▁contract	-6873
▁sleeping	-6874
▁franchise	-6875
▁adventures	-6876
TER	-6877
ocr	-6878
wor	-6879
▁Gi	-6880
▁PL	-6881
▁Dave	-6882
▁neck	-6883
▁pool	-6884
▁cases	-6885
▁Basically	-6886
▁atmospher	-6887
OD	-6888
ila	-6889
ogue	-6890
▁Nol	-6891
▁2001	-6892
▁cave	-6893
▁vivid	-6894
▁Columbo	-6895
▁creation	-6896
▁Catherine	-6897
EL	-6898
▁vir	-6899
▁Andre	-6900
▁noted	-6901
▁robot	-6902
▁Walker	-6903
▁unfold	-6904
▁imaginative	-6905
retty	-6906
▁Dream	-6907
▁Laura	-6908
▁aired	-6909
▁steps	-6910
▁Oliver	-6911
▁Powell	-6912
▁School	-6913
▁border	-6914
original	-6915
▁Britain	-6916
▁manager	-6917
▁notable	-6918
▁techniques	-6919
cia	-6920
pris	-6921
writ	-6922
▁sky	-6923
▁corn	-6924
mitted	-6925
▁robber	-6926
▁ourselves	-6927
rig	-6928
phan	-6929
than	-6930
going	-6931
▁Blair	-6932
▁Hardy	-6933
▁Tommy	-6934
▁occup	-6935
▁wanna	-6936
▁hiding	-6937
▁install	-6938
▁Stanwyck	-6939
▁specific	-6940
▁Bollywood	-6941
▁PG	-6942
airs	-6943
hest	-6944
mate	-6945
order	-6946
▁Turn	-6947
▁Wolf	-6948
▁firm	-6949
▁sket	-6950
▁Marie	-6951
▁urban	-6952
▁ripped	-6953
▁wasting	-6954
sky	-6955
Will	-6956
alph	-6957
▁Ast	-6958
▁Were	-6959
▁exch	-6960
ointed	-6961
▁Egypt	-6962
▁Grace	-6963
▁Thing	-6964
▁raise	-6965
cellent	-6966
▁Golden	-6967
▁ironic	-6968
▁stunts	-6969
▁Cameron	-6970
▁useless	-6971
▁SPOILERS	-6972
▁psychiat	-6973
▁suffered	-6974
▁appearances	-6975
UL	-6976
?).	-6977
ype	-6978
▁vi	-6979
ooky	-6980
▁hes	-6981
▁sedu	-6982
▁Chuck	-6983
▁Clint	-6984
▁enorm	-6985
▁videos	-6986
▁restaur	-6987
▁official	-6988
▁attempted	-6989
▁happiness	-6990
▁searching	-6991
▁successfully	-6992
▁**	-6993
amor	-6994
seud	-6995
umbs	-6996
▁alt	-6997
asion	-6998
cover	-6999
▁dece	-7000
comedy	-7001
iation	-7002
▁Matth	-7003
▁oblig	-7004
▁relax	-7005
▁sings	-7006
▁storm	-7007
▁Hunter	-7008
▁access	-7009
▁cousin	-7010
▁hooked	-7011
▁states	-7012
▁Connery	-7013
▁boredom	-7014
▁Universal	-7015
EAD	-7016
nan	-7017
list	-7018
oops	-7019
▁Dad	-7020
▁Bell	-7021
▁vent	-7022
▁Griff	-7023
▁femin	-7024
▁Soviet	-7025
▁conven	-7026
▁refuses	-7027
▁friendly	-7028
▁initially	-7029
▁nightmare	-7030
▁sexuality	-7031
▁meaningful	-7032
▁physically	-7033
3,	-7034
ibl	-7035
bbed	-7036
▁MAN	-7037
erior	-7038
▁Fair	-7039
▁Soon	-7040
▁splend	-7041
▁Someone	-7042
▁belongs	-7043
▁tribute	-7044
▁chilling	-7045
▁instantly	-7046
▁marvelous	-7047
▁Definitely	-7048
▁consequences	-7049
▁protagonists	-7050
obi	-7051
ader	-7052
inda	-7053
when	-7054
▁Fle	-7055
▁Wes	-7056
▁enh	-7057
arter	-7058
place	-7059
plots	-7060
▁torn	-7061
▁Alien	-7062
▁Greek	-7063
▁Nancy	-7064
▁lying	-7065
▁proof	-7066
▁fallen	-7067
▁weapon	-7068
▁established	-7069
run	-7070
erty	-7071
ogan	-7072
▁lyr	-7073
lance	-7074
▁Lore	-7075
▁dign	-7076
▁jack	-7077
rified	-7078
▁irony	-7079
▁tempt	-7080
▁toile	-7081
itchell	-7082
▁corpor	-7083
▁repeat	-7084
▁spoken	-7085
▁Michelle	-7086
▁achieved	-7087
▁fabulous	-7088
▁overcome	-7089
▁stealing	-7090
▁Seriously	-7091
▁competent	-7092
▁essential	-7093
ped	-7094
ulate	-7095
▁Lion	-7096
Robert	-7097
▁Family	-7098
▁REALLY	-7099
▁poster	-7100
▁Andrews	-7101
▁convict	-7102
▁werewolf	-7103
▁surrounding	-7104
Mr	-7105
ux	-7106
Who	-7107
stop	-7108
▁Atl	-7109
▁Sol	-7110
▁Veg	-7111
▁arr	-7112
▁gal	-7113
elson	-7114
prise	-7115
vably	-7116
▁anal	-7117
▁legs	-7118
▁Maria	-7119
▁sends	-7120
▁trial	-7121
▁Freeman	-7122
▁Victoria	-7123
▁exercise	-7124
▁weakness	-7125
BLE	-7126
arm	-7127
gun	-7128
hill	-7129
itar	-7130
orses	-7131
▁Cind	-7132
▁tied	-7133
iments	-7134
▁Flynn	-7135
▁Satan	-7136
▁nurse	-7137
atholic	-7138
▁lacked	-7139
▁preach	-7140
▁crafted	-7141
▁Reynolds	-7142
▁Obviously	-7143
▁Tarantino	-7144
▁sentimental	-7145
▁neighborhood	-7146
va	-7147
ONE	-7148
end	-7149
ulk	-7150
▁Id	-7151
iders	-7152
ushes	-7153
▁warn	-7154
entric	-7155
▁caric	-7156
▁traum	-7157
▁elabor	-7158
▁infect	-7159
▁mirror	-7160
▁neighb	-7161
▁surviv	-7162
▁triumph	-7163
▁scientists	-7164
▁Fu	-7165
aser	-7166
hold	-7167
oche	-7168
accur	-7169
▁meat	-7170
▁eager	-7171
▁destro	-7172
▁shines	-7173
▁tender	-7174
▁horrend	-7175
▁troubled	-7176
▁obsession	-7177
5,	-7178
ELL	-7179
aky	-7180
cket	-7181
iffe	-7182
kick	-7183
thew	-7184
wife	-7185
▁90'	-7186
▁Sky	-7187
aying	-7188
orrow	-7189
▁Home	-7190
ctions	-7191
▁Sorry	-7192
▁pseud	-7193
▁solve	-7194
▁stumb	-7195
▁incons	-7196
▁sevent	-7197
▁territ	-7198
▁Charact	-7199
▁closely	-7200
▁essence	-7201
▁musicals	-7202
▁vacation	-7203
▁spiritual	-7204
▁performers	-7205
3)	-7206
?),	-7207
▁LI	-7208
ours	-7209
▁Hud	-7210
eline	-7211
impse	-7212
ugosi	-7213
woman	-7214
▁Curt	-7215
▁Oliv	-7216
▁budd	-7217
▁fest	-7218
▁trap	-7219
▁Sally	-7220
▁spots	-7221
▁thick	-7222
▁glimpse	-7223
▁millions	-7224
▁appearing	-7225
ata	-7226
lett	-7227
rich	-7228
uppet	-7229
▁Page	-7230
▁Penn	-7231
▁Such	-7232
▁beer	-7233
▁Bobby	-7234
▁Would	-7235
▁ambig	-7236
▁autom	-7237
▁plant	-7238
▁saves	-7239
asingly	-7240
▁Comedy	-7241
▁homage	-7242
▁wishes	-7243
▁General	-7244
▁transfer	-7245
▁uncomfortable	-7246
▁:)	-7247
Jack	-7248
quis	-7249
▁spy	-7250
▁Cont	-7251
▁True	-7252
direct	-7253
▁coach	-7254
▁dealt	-7255
▁devil	-7256
▁Franco	-7257
▁Virgin	-7258
▁dramas	-7259
▁shoots	-7260
▁thirty	-7261
▁annoyed	-7262
▁hundreds	-7263
▁carefully	-7264
▁daughters	-7265
▁enjoyment	-7266
▁atmospheric	-7267
LD	-7268
aws	-7269
oooo	-7270
▁BAD	-7271
▁Tri	-7272
▁jew	-7273
▁decl	-7274
▁inco	-7275
ifting	-7276
ructed	-7277
▁month	-7278
▁borrow	-7279
▁chases	-7280
▁lesser	-7281
▁opposed	-7282
▁seeking	-7283
▁concerns	-7284
▁develops	-7285
▁explicit	-7286
▁nowadays	-7287
▁stranger	-7288
▁connected	-7289
▁intention	-7290
▁personalities	-7291
awa	-7292
▁Mid	-7293
agine	-7294
angle	-7295
gging	-7296
▁Ball	-7297
▁Greg	-7298
▁dump	-7299
▁jerk	-7300
▁mont	-7301
▁push	-7302
▁rain	-7303
redict	-7304
▁choos	-7305
▁ultra	-7306
▁battles	-7307
▁madness	-7308
mentioned	-7309
▁darkness	-7310
▁ensemble	-7311
▁identify	-7312
▁thousand	-7313
▁broadcast	-7314
▁thrilling	-7315
▁unforgettable	-7316
ANT	-7317
ado	-7318
cut	-7319
too	-7320
uke	-7321
▁HBO	-7322
▁Top	-7323
ellar	-7324
stone	-7325
riller	-7326
▁Jamie	-7327
▁adequ	-7328
▁bucks	-7329
emption	-7330
ielberg	-7331
▁afford	-7332
▁beings	-7333
▁thread	-7334
▁Germans	-7335
▁miserably	-7336
▁outrageous	-7337
▁importantly	-7338
gra	-7339
rael	-7340
▁Lem	-7341
▁Burt	-7342
▁styl	-7343
▁quote	-7344
▁stiff	-7345
▁dollar	-7346
▁struck	-7347
▁kidnapped	-7348
oma	-7349
onse	-7350
▁Alf	-7351
▁Ric	-7352
inent	-7353
▁sail	-7354
▁broke	-7355
▁drags	-7356
▁Killer	-7357
▁virgin	-7358
▁lessons	-7359
▁pointed	-7360
▁profession	-7361
▁uninspired	-7362
lee	-7363
van	-7364
why	-7365
▁alb	-7366
▁tow	-7367
brick	-7368
iently	-7369
▁guilt	-7370
▁metal	-7371
▁notch	-7372
▁larger	-7373
▁conspir	-7374
▁spending	-7375
OK	-7376
▁Rep	-7377
▁Res	-7378
▁WOR	-7379
▁tax	-7380
▁wra	-7381
acked	-7382
▁Drew	-7383
▁Poor	-7384
▁grows	-7385
▁knife	-7386
▁upper	-7387
▁Arnold	-7388
▁attend	-7389
▁Mitchell	-7390
▁Probably	-7391
▁hopefully	-7392
▁acceptable	-7393
US	-7394
anc	-7395
Good	-7396
rase	-7397
▁Gen	-7398
▁aged	-7399
▁dare	-7400
▁activ	-7401
▁citiz	-7402
▁heist	-7403
▁kicks	-7404
▁Acting	-7405
▁Police	-7406
▁switch	-7407
▁unbear	-7408
▁inaccur	-7409
▁incompet	-7410
▁striking	-7411
Con	-7412
▁Met	-7413
water	-7414
▁embr	-7415
▁suits	-7416
▁Rachel	-7417
▁rushed	-7418
▁smooth	-7419
▁tricks	-7420
▁dialogs	-7421
Bra	-7422
▁Fro	-7423
▁Ken	-7424
▁Reg	-7425
▁ecc	-7426
▁Gill	-7427
......	-7428
handed	-7429
ifying	-7430
▁newsp	-7431
▁unple	-7432
▁beating	-7433
▁briefly	-7434
▁chasing	-7435
▁ignored	-7436
Unfortunately	-7437
▁increasingly	-7438
▁AT	-7439
Char	-7440
agan	-7441
▁Dri	-7442
▁Net	-7443
▁Brid	-7444
▁Wend	-7445
▁hill	-7446
▁moon	-7447
▁faced	-7448
▁wreck	-7449
▁Father	-7450
▁abrupt	-7451
▁select	-7452
▁talked	-7453
Director	-7454
ographic	-7455
▁Matthau	-7456
▁National	-7457
▁colorful	-7458
▁superfic	-7459
7.	-7460
rep	-7461
uno	-7462
igan	-7463
pses	-7464
ormal	-7465
▁Prin	-7466
▁hung	-7467
erella	-7468
uments	-7469
▁daily	-7470
▁Korean	-7471
▁Living	-7472
▁ambitious	-7473
▁strangely	-7474
▁competition	-7475
kel	-7476
▁Ma	-7477
Paul	-7478
udos	-7479
▁reb	-7480
▁rhy	-7481
▁unh	-7482
icing	-7483
▁chap	-7484
▁folk	-7485
▁gain	-7486
▁Heaven	-7487
▁dragged	-7488
▁endearing	-7489
▁attraction	-7490
▁repeatedly	-7491
▁repetitive	-7492
aka	-7493
lover	-7494
▁guts	-7495
series	-7496
▁Check	-7497
▁chest	-7498
▁domin	-7499
▁fianc	-7500
▁hoped	-7501
▁limit	-7502
▁queen	-7503
▁shall	-7504
▁Israel	-7505
▁editor	-7506
▁riding	-7507
▁spread	-7508
▁Jessica	-7509
▁comfort	-7510
▁dropped	-7511
▁subplot	-7512
istically	-7513
▁Jonathan	-7514
▁sexually	-7515
▁westerns	-7516
▁thrillers	-7517
▁inevitable	-7518
▁destruction	-7519
Ad	-7520
1/2	-7521
bal	-7522
pse	-7523
acted	-7524
▁size	-7525
▁Lugosi	-7526
▁cringe	-7527
▁Indians	-7528
▁relevant	-7529
▁curiosity	-7530
▁disappear	-7531
▁expensive	-7532
▁remaining	-7533
▁revealing	-7534
▁melodramatic	-7535
30	-7536
▁'7	-7537
▁Di	-7538
mann	-7539
atisf	-7540
▁Mach	-7541
▁Rand	-7542
▁bott	-7543
▁Power	-7544
▁Ralph	-7545
onestly	-7546
▁easier	-7547
▁ghosts	-7548
▁handful	-7549
▁portrait	-7550
▁Spielberg	-7551
hi	-7552
▁DE	-7553
allo	-7554
▁Dal	-7555
▁ruth	-7556
▁sand	-7557
▁toss	-7558
oilers	-7559
▁Holly	-7560
▁patri	-7561
▁gather	-7562
▁explore	-7563
▁electric	-7564
▁attracted	-7565
▁importance	-7566
!.	-7567
Tw	-7568
▁24	-7569
icop	-7570
▁10,	-7571
▁Has	-7572
▁lur	-7573
▁rat	-7574
▁tom	-7575
Where	-7576
▁Khan	-7577
▁eleg	-7578
▁Laurel	-7579
▁Mother	-7580
▁fourth	-7581
▁locked	-7582
atchable	-7583
▁selling	-7584
▁charisma	-7585
▁requires	-7586
▁appalling	-7587
AND	-7588
ieu	-7589
new	-7590
▁45	-7591
book	-7592
only	-7593
▁Miy	-7594
▁shy	-7595
ables	-7596
▁Bros	-7597
▁elev	-7598
▁brand	-7599
▁threw	-7600
▁trite	-7601
▁Austen	-7602
▁Nelson	-7603
▁Norman	-7604
▁Sidney	-7605
▁cameos	-7606
▁engine	-7607
▁suburb	-7608
▁selfish	-7609
▁studios	-7610
▁infamous	-7611
▁response	-7612
▁president	-7613
▁nonetheless	-7614
▁2,	-7615
cend	-7616
ptic	-7617
▁Cus	-7618
plane	-7619
▁1960	-7620
▁Next	-7621
▁busy	-7622
▁judg	-7623
▁blows	-7624
▁illeg	-7625
▁stated	-7626
▁vulner	-7627
ertainly	-7628
▁stretch	-7629
▁phenomen	-7630
▁intentions	-7631
▁terrifying	-7632
via	-7633
omic	-7634
utch	-7635
▁Tem	-7636
weight	-7637
▁argue	-7638
▁eerie	-7639
▁corner	-7640
▁finger	-7641
▁string	-7642
▁adapted	-7643
▁dubbing	-7644
▁backdrop	-7645
▁individuals	-7646
▁sophisticated	-7647
iar	-7648
gain	-7649
▁Bac	-7650
▁Cur	-7651
▁Pot	-7652
▁abys	-7653
▁glob	-7654
▁myst	-7655
▁nuts	-7656
anging	-7657
▁Heart	-7658
▁candy	-7659
▁fears	-7660
▁honor	-7661
▁shout	-7662
▁split	-7663
▁watches	-7664
▁creators	-7665
▁Personally	-7666
CE	-7667
Tom	-7668
ugh	-7669
▁Az	-7670
avor	-7671
▁mes	-7672
attan	-7673
eston	-7674
▁Four	-7675
▁depe	-7676
ements	-7677
▁afore	-7678
▁staff	-7679
isation	-7680
ologist	-7681
▁Church	-7682
▁lifest	-7683
▁toilet	-7684
▁Angeles	-7685
▁breasts	-7686
▁demands	-7687
▁sympath	-7688
▁progress	-7689
▁elsewhere	-7690
▁reactions	-7691
▁returning	-7692
▁territory	-7693
▁explosions	-7694
▁incoherent	-7695
▁reasonable	-7696
▁commercials	-7697
6.	-7698
9.	-7699
mit	-7700
oni	-7701
▁pa	-7702
ivan	-7703
rink	-7704
unky	-7705
▁GRE	-7706
anagh	-7707
▁feed	-7708
▁hype	-7709
▁lust	-7710
▁nail	-7711
▁clown	-7712
▁Hudson	-7713
▁occurs	-7714
▁happily	-7715
▁basement	-7716
▁mistaken	-7717
▁cardboard	-7718
▁unpleasant	-7719
Per	-7720
agg	-7721
▁MA	-7722
▁une	-7723
eremy	-7724
▁goal	-7725
▁hood	-7726
▁imit	-7727
▁Mitch	-7728
▁stood	-7729
▁Matrix	-7730
▁Rogers	-7731
▁crimes	-7732
▁devast	-7733
▁horses	-7734
▁packed	-7735
▁presum	-7736
▁restra	-7737
▁engaged	-7738
▁checking	-7739
▁revelation	-7740
▁tremendous	-7741
▁investigation	-7742
abs	-7743
▁3.	-7744
▁Cub	-7745
▁Hug	-7746
leton	-7747
▁1930	-7748
▁Hurt	-7749
▁Lucy	-7750
isions	-7751
▁obser	-7752
▁Morris	-7753
▁Thanks	-7754
▁Chicago	-7755
▁Picture	-7756
▁realise	-7757
▁replace	-7758
▁eccentric	-7759
▁philosoph	-7760
▁professor	-7761
▁motivation	-7762
▁restaurant	-7763
oms	-7764
ora	-7765
Like	-7766
ipes	-7767
▁Tru	-7768
Maybe	-7769
bbing	-7770
oiler	-7771
uloid	-7772
▁Give	-7773
▁Rome	-7774
▁reli	-7775
▁sque	-7776
usions	-7777
▁etern	-7778
▁maker	-7779
▁raped	-7780
Finally	-7781
▁Sandra	-7782
▁Secret	-7783
▁medium	-7784
▁library	-7785
▁precise	-7786
▁wonders	-7787
▁killings	-7788
▁Alexander	-7789
▁brilliance	-7790
ipe	-7791
nic	-7792
▁Ice	-7793
▁dub	-7794
....<	-7795
ierce	-7796
ograph	-7797
▁bleak	-7798
▁piano	-7799
▁widow	-7800
▁Leslie	-7801
▁Oscars	-7802
▁dancer	-7803
▁wicked	-7804
existent	-7805
▁Leonard	-7806
▁accused	-7807
▁captain	-7808
ventually	-7809
▁internet	-7810
▁horrendous	-7811
▁interaction	-7812
▁photographer	-7813
ERS	-7814
dog	-7815
idel	-7816
oner	-7817
▁Kirk	-7818
ablish	-7819
▁areas	-7820
▁burst	-7821
▁clues	-7822
▁rapid	-7823
▁beaten	-7824
▁explod	-7825
▁horrid	-7826
▁observ	-7827
▁pleased	-7828
▁inexplic	-7829
80	-7830
Se	-7831
rd	-7832
Here	-7833
such	-7834
▁cig	-7835
▁oil	-7836
aning	-7837
▁Anim	-7838
▁Bart	-7839
▁Fire	-7840
▁dent	-7841
▁Indeed	-7842
▁Kubrick	-7843
▁pulling	-7844
▁associated	-7845
▁grandfather	-7846
▁documentaries	-7847
Gr	-7848
'.<	-7849
omy	-7850
▁/>'	-7851
▁Hind	-7852
▁merit	-7853
ambling	-7854
writers	-7855
▁shower	-7856
▁detailed	-7857
▁displays	-7858
▁messages	-7859
▁precious	-7860
▁countless	-7861
▁encounters	-7862
▁Hy	-7863
corn	-7864
iere	-7865
▁Hot	-7866
David	-7867
chest	-7868
orthy	-7869
▁Josh	-7870
▁Kath	-7871
atched	-7872
school	-7873
▁Emily	-7874
▁Witch	-7875
▁ranks	-7876
▁Russia	-7877
▁cowboy	-7878
▁perpet	-7879
▁elderly	-7880
▁jealous	-7881
▁thrills	-7882
▁segments	-7883
▁surrounded	-7884
1)	-7885
KE	-7886
Star	-7887
agin	-7888
heim	-7889
omit	-7890
oven	-7891
▁Row	-7892
▁Ten	-7893
obody	-7894
▁Conn	-7895
▁wann	-7896
itchen	-7897
minute	-7898
▁alike	-7899
▁arrive	-7900
▁mechan	-7901
▁helicop	-7902
▁symbolism	-7903
▁represents	-7904
▁FR	-7905
ophy	-7906
▁Jer	-7907
▁Ree	-7908
video	-7909
▁Could	-7910
▁Marsh	-7911
▁Think	-7912
▁guide	-7913
▁loser	-7914
▁slick	-7915
▁walls	-7916
jointed	-7917
ullivan	-7918
veloped	-7919
▁Pretty	-7920
▁fortun	-7921
▁fifteen	-7922
▁forgive	-7923
▁holiday	-7924
▁allowing	-7925
▁argument	-7926
▁returned	-7927
▁timeless	-7928
▁hysterical	-7929
▁performing	-7930
▁resolution	-7931
2.	-7932
ela	-7933
▁SU	-7934
▁1/2	-7935
▁Ing	-7936
▁row	-7937
lines	-7938
▁Emma	-7939
▁Mars	-7940
▁Owen	-7941
▁merc	-7942
minded	-7943
▁cried	-7944
▁liking	-7945
▁Science	-7946
▁mansion	-7947
▁outcome	-7948
▁abilities	-7949
▁providing	-7950
▁pleasantly	-7951
▁reasonably	-7952
▁subsequent	-7953
▁directorial	-7954
▁accomplished	-7955
▁photographed	-7956
2,	-7957
▁21	-7958
idal	-7959
onne	-7960
▁III	-7961
▁toy	-7962
▁nine	-7963
▁wake	-7964
▁Bruno	-7965
▁drown	-7966
▁farce	-7967
▁hearts	-7968
▁reluct	-7969
▁advance	-7970
▁detract	-7971
▁spoiled	-7972
▁flawless	-7973
▁splendid	-7974
▁wondered	-7975
yc	-7976
OME	-7977
hey	-7978
ira	-7979
tte	-7980
▁SC	-7981
▁pin	-7982
anson	-7983
ilted	-7984
ooges	-7985
▁econ	-7986
▁tons	-7987
▁Nazis	-7988
▁chain	-7989
▁virus	-7990
▁Cinema	-7991
▁Juliet	-7992
▁enters	-7993
▁idiots	-7994
ifically	-7995
▁dismiss	-7996
▁escaped	-7997
▁affection	-7998
▁landscape	-7999
▁resembles	-8000
ords	-8001
▁Bry	-8002
▁webs	-8003
▁Films	-8004
▁cared	-8005
▁champ	-8006
▁fancy	-8007
▁gotta	-8008
▁motor	-8009
▁wheel	-8010
▁Walken	-8011
▁antics	-8012
▁burned	-8013
▁immigr	-8014
▁nearby	-8015
▁receive	-8016
▁definite	-8017
▁tortured	-8018
▁complaint	-8019
▁insulting	-8020
▁worthless	-8021
ih	-8022
rim	-8023
▁Ka	-8024
▁50'	-8025
▁Gun	-8026
chers	-8027
eping	-8028
▁Ever	-8029
cingly	-8030
▁Ghost	-8031
▁audio	-8032
▁pushed	-8033
▁jumping	-8034
▁attached	-8035
▁sadistic	-8036
▁stronger	-8037
▁charismatic	-8038
▁Frankenstein	-8039
ERE	-8040
cul	-8041
plo	-8042
▁Aw	-8043
...)	-8044
also	-8045
▁Aud	-8046
▁Gal	-8047
think	-8048
▁1940	-8049
movies	-8050
ortion	-8051
pieces	-8052
▁Buddy	-8053
▁angel	-8054
▁swear	-8055
▁Almost	-8056
▁extended	-8057
▁generous	-8058
▁believing	-8059
▁possessed	-8060
▁highlights	-8061
▁meaningless	-8062
7,	-8063
ees	-8064
Rich	-8065
isms	-8066
itle	-8067
▁mic	-8068
▁psy	-8069
wered	-8070
▁hunt	-8071
▁rive	-8072
venile	-8073
▁Baker	-8074
▁Woman	-8075
▁beast	-8076
▁invis	-8077
▁Canada	-8078
▁Friend	-8079
▁Highly	-8080
▁albeit	-8081
▁button	-8082
▁demons	-8083
▁insist	-8084
▁resour	-8085
▁sticks	-8086
▁Stanley	-8087
▁causing	-8088
▁fortune	-8089
▁worried	-8090
▁suspects	-8091
rior	-8092
type	-8093
▁Cow	-8094
▁Pen	-8095
Other	-8096
▁Call	-8097
▁Stra	-8098
ixture	-8099
▁River	-8100
▁aimed	-8101
▁smoke	-8102
▁stead	-8103
▁Hopper	-8104
▁crisis	-8105
▁listed	-8106
▁persona	-8107
▁politic	-8108
▁affected	-8109
▁bathroom	-8110
▁distance	-8111
▁planning	-8112
▁projects	-8113
▁celluloid	-8114
▁discussion	-8115
▁possibility	-8116
▁superficial	-8117
";	-8118
6)	-8119
Tr	-8120
hew	-8121
oln	-8122
onym	-8123
rict	-8124
seen	-8125
uity	-8126
▁CIA	-8127
▁gif	-8128
▁pig	-8129
▁web	-8130
peror	-8131
▁8/10	-8132
▁Geor	-8133
▁Reed	-8134
▁Ring	-8135
▁bold	-8136
▁calm	-8137
▁hire	-8138
itches	-8139
▁Right	-8140
▁Carter	-8141
▁buried	-8142
▁combat	-8143
▁covers	-8144
▁daring	-8145
▁drivel	-8146
▁ingred	-8147
▁Ireland	-8148
▁hitting	-8149
▁travels	-8150
▁whoever	-8151
▁Whatever	-8152
▁imperson	-8153
▁sentence	-8154
▁survival	-8155
▁compassion	-8156
▁delivering	-8157
▁frustrated	-8158
▁unintentionally	-8159
9,	-8160
uf	-8161
AIN	-8162
ESS	-8163
▁EN	-8164
crow	-8165
▁Saw	-8166
▁sup	-8167
!!!!!	-8168
dated	-8169
▁Need	-8170
▁Roll	-8171
▁diff	-8172
▁iron	-8173
▁load	-8174
▁wack	-8175
▁Hanks	-8176
▁blast	-8177
▁Carrey	-8178
▁plague	-8179
▁careers	-8180
▁fitting	-8181
▁loosely	-8182
▁obscure	-8183
▁assassin	-8184
▁magazine	-8185
▁menacing	-8186
▁subjects	-8187
▁achievement	-8188
▁comfortable	-8189
jo	-8190
▁5.	-8191
aval	-8192
hour	-8193
▁gut	-8194
artha	-8195
erning	-8196
▁Linda	-8197
▁Train	-8198
▁draws	-8199
▁souls	-8200
▁strip	-8201
▁venge	-8202
because	-8203
▁Sister	-8204
▁Willis	-8205
▁consum	-8206
▁golden	-8207
▁maniac	-8208
▁Matthew	-8209
▁respond	-8210
▁birthday	-8211
▁childish	-8212
▁offended	-8213
▁inspiring	-8214
▁typically	-8215
▁concerning	-8216
▁disjointed	-8217
▁redemption	-8218
▁involvement	-8219
▁ridiculously	-8220
▁;	-8221
gal	-8222
got	-8223
bury	-8224
erek	-8225
ione	-8226
iper	-8227
kish	-8228
lers	-8229
uinn	-8230
▁Abs	-8231
asses	-8232
useum	-8233
▁1990	-8234
▁Fore	-8235
▁shel	-8236
rifice	-8237
▁Civil	-8238
▁diver	-8239
▁rural	-8240
Despite	-8241
▁Gothic	-8242
▁Murray	-8243
▁absorb	-8244
▁builds	-8245
▁horrors	-8246
▁prisoners	-8247
5)	-8248
sl	-8249
box	-8250
race	-8251
▁Sub	-8252
▁nut	-8253
paced	-8254
▁Jake	-8255
▁Real	-8256
▁dire	-8257
▁tall	-8258
▁west	-8259
itudes	-8260
oubted	-8261
urious	-8262
▁beats	-8263
▁blend	-8264
▁fired	-8265
ameless	-8266
▁Altman	-8267
▁Cusack	-8268
icularly	-8269
▁Further	-8270
▁logical	-8271
▁metaphor	-8272
▁superbly	-8273
▁continued	-8274
▁astonishing	-8275
aye	-8276
▁..	-8277
love	-8278
▁Dev	-8279
▁Med	-8280
▁Tot	-8281
▁fed	-8282
▁flu	-8283
▁sen	-8284
istan	-8285
maybe	-8286
opsis	-8287
▁cere	-8288
▁gift	-8289
▁ramp	-8290
▁sill	-8291
ration	-8292
▁Field	-8293
▁NEVER	-8294
▁Uncle	-8295
▁gradu	-8296
▁sport	-8297
▁Streep	-8298
▁corpse	-8299
▁devoid	-8300
▁Vampire	-8301
▁picking	-8302
▁Catholic	-8303
▁scripted	-8304
▁investigate	-8305
ACK	-8306
put	-8307
gger	-8308
ooge	-8309
uite	-8310
▁Ele	-8311
force	-8312
ortal	-8313
▁dict	-8314
incoln	-8315
▁Video	-8316
▁glory	-8317
▁ingen	-8318
▁prede	-8319
▁Brando	-8320
▁height	-8321
▁pseudo	-8322
▁spooky	-8323
▁Lawrence	-8324
▁morality	-8325
▁slightest	-8326
▁prostitute	-8327
▁differences	-8328
▁exaggerated	-8329
▁implausible	-8330
▁technically	-8331
▁unwatchable	-8332
▁aforementioned	-8333
ya	-8334
▁Po	-8335
eyed	-8336
iors	-8337
▁Acc	-8338
▁FOR	-8339
▁ONE	-8340
▁dre	-8341
▁sam	-8342
▁(196	-8343
▁2000	-8344
▁Down	-8345
▁Manh	-8346
▁Shep	-8347
▁dear	-8348
▁duty	-8349
▁ward	-8350
▁Blake	-8351
▁Angela	-8352
▁Foster	-8353
▁Season	-8354
▁defend	-8355
▁errors	-8356
ications	-8357
▁assault	-8358
▁whereas	-8359
▁Campbell	-8360
▁installment	-8361
▁Nevertheless	-8362
2)	-8363
Fr	-8364
aks	-8365
izz	-8366
ses	-8367
ATCH	-8368
aled	-8369
cont	-8370
keys	-8371
▁Imp	-8372
▁doz	-8373
▁nerv	-8374
▁Fonda	-8375
▁Union	-8376
▁grasp	-8377
▁label	-8378
▁labor	-8379
▁maint	-8380
▁tracks	-8381
SPOILERS	-8382
▁Argento	-8383
▁reached	-8384
▁stinker	-8385
▁improved	-8386
▁lifetime	-8387
▁offering	-8388
▁ruthless	-8389
redictable	-8390
▁proceedings	-8391
▁conversations	-8392
6,	-8393
Ex	-8394
OST	-8395
balls	-8396
eller	-8397
▁Days	-8398
▁Iron	-8399
▁Ross	-8400
▁bust	-8401
▁wave	-8402
▁Techn	-8403
▁noise	-8404
▁stole	-8405
▁prejud	-8406
▁Fiction	-8407
▁Wallace	-8408
▁benefit	-8409
▁conclud	-8410
▁drunken	-8411
▁kidding	-8412
▁popcorn	-8413
▁removed	-8414
▁sadness	-8415
rehensible	-8416
▁discovery	-8417
sex	-8418
zel	-8419
▁AW	-8420
▁Ira	-8421
▁Cour	-8422
▁Lang	-8423
▁Navy	-8424
▁asse	-8425
▁sons	-8426
astern	-8427
▁Diane	-8428
▁inher	-8429
▁marks	-8430
▁notes	-8431
▁signs	-8432
uristic	-8433
▁humili	-8434
▁ticket	-8435
▁Cassave	-8436
▁Madonna	-8437
▁Special	-8438
▁devoted	-8439
▁distant	-8440
▁measure	-8441
▁require	-8442
▁isolated	-8443
▁strictly	-8444
▁scientific	-8445
Sec	-8446
aph	-8447
dra	-8448
ffee	-8449
town	-8450
▁Fel	-8451
grade	-8452
▁Neil	-8453
▁Tracy	-8454
▁disli	-8455
▁shoes	-8456
▁tales	-8457
▁trend	-8458
▁Rather	-8459
▁groups	-8460
▁headed	-8461
▁patter	-8462
▁disease	-8463
▁hunting	-8464
▁illustr	-8465
▁pretend	-8466
ortunately	-8467
▁dialogues	-8468
▁predecess	-8469
▁transport	-8470
▁traveling	-8471
▁overlooked	-8472
"-	-8473
ahl	-8474
dri	-8475
▁Hey	-8476
Night	-8477
fight	-8478
▁Case	-8479
▁Gabr	-8480
▁Talk	-8481
▁croc	-8482
▁1950'	-8483
▁Force	-8484
▁Lucas	-8485
▁Claire	-8486
▁bridge	-8487
▁closed	-8488
▁heroic	-8489
▁lyrics	-8490
▁poison	-8491
▁torment	-8492
▁befriend	-8493
▁juvenile	-8494
▁occurred	-8495
▁officers	-8496
▁dedicated	-8497
1.	-8498
Br	-8499
OS	-8500
wl	-8501
▁4.	-8502
afia	-8503
aris	-8504
nest	-8505
obic	-8506
umsy	-8507
▁Bol	-8508
▁Cre	-8509
▁Kat	-8510
ovich	-8511
▁Boll	-8512
▁trio	-8513
ancing	-8514
ilarly	-8515
▁Bates	-8516
▁Grade	-8517
▁shirt	-8518
▁spare	-8519
▁Dorothy	-8520
▁mixture	-8521
▁vicious	-8522
▁goodness	-8523
▁opinions	-8524
▁sidekick	-8525
▁currently	-8526
▁disturbed	-8527
▁movements	-8528
agn	-8529
Most	-8530
enes	-8531
▁bew	-8532
▁pir	-8533
watch	-8534
▁7/10	-8535
▁Lots	-8536
terday	-8537
▁winds	-8538
▁Dragon	-8539
▁staged	-8540
▁unfair	-8541
▁conserv	-8542
▁dignity	-8543
▁inhabit	-8544
▁Griffith	-8545
▁admitted	-8546
▁collabor	-8547
▁elaborate	-8548
▁gradually	-8549
▁altogether	-8550
▁influenced	-8551
▁recognition	-8552
▁conventional	-8553
4,	-8554
▁Mo	-8555
▁lit	-8556
▁reh	-8557
Watch	-8558
▁Bach	-8559
▁Hood	-8560
▁gimm	-8561
▁root	-8562
▁tool	-8563
atures	-8564
ularly	-8565
unning	-8566
▁Candy	-8567
▁blank	-8568
▁indul	-8569
▁Amanda	-8570
▁Silver	-8571
▁agents	-8572
▁convol	-8573
▁mesmer	-8574
▁Lincoln	-8575
▁Swedish	-8576
▁staying	-8577
▁intrigue	-8578
▁overdone	-8579
▁commented	-8580
▁unbearable	-8581
Ke	-8582
des	-8583
ima	-8584
▁Low	-8585
▁Syd	-8586
▁hun	-8587
emark	-8588
emies	-8589
▁Garb	-8590
▁LOVE	-8591
▁Todd	-8592
▁punk	-8593
▁wont	-8594
▁doors	-8595
▁steam	-8596
ocative	-8597
▁harder	-8598
▁hunter	-8599
▁orders	-8600
▁sloppy	-8601
▁generic	-8602
▁recorded	-8603
▁decisions	-8604
▁intrigued	-8605
▁primarily	-8606
▁terrorist	-8607
1,	-8608
Pe	-8609
alo	-8610
iko	-8611
ket	-8612
▁Mun	-8613
▁Ned	-8614
▁duo	-8615
olves	-8616
▁Norm	-8617
▁curse	-8618
▁Planet	-8619
▁brains	-8620
▁hatred	-8621
▁inject	-8622
▁racial	-8623
▁relies	-8624
▁rubber	-8625
▁Frankie	-8626
▁motives	-8627
▁reduced	-8628
▁murderous	-8629
▁performer	-8630
▁threatening	-8631
oup	-8632
pin	-8633
aman	-8634
oric	-8635
ouch	-8636
▁ABC	-8637
▁Raj	-8638
▁Sen	-8639
Black	-8640
eland	-8641
oning	-8642
onson	-8643
orton	-8644
unior	-8645
▁Arab	-8646
▁Pred	-8647
▁sett	-8648
▁Brend	-8649
▁inapp	-8650
▁ought	-8651
▁pitch	-8652
idering	-8653
related	-8654
▁bullet	-8655
oubtedly	-8656
▁screams	-8657
▁hardcore	-8658
▁Excellent	-8659
▁population	-8660
▁recognized	-8661
▁grandmother	-8662
See	-8663
▁Ah	-8664
ghan	-8665
mail	-8666
resp	-8667
▁Eri	-8668
▁Gil	-8669
▁Len	-8670
▁Rub	-8671
Still	-8672
every	-8673
▁Beck	-8674
▁Club	-8675
▁Lake	-8676
▁cure	-8677
▁sadd	-8678
itched	-8679
▁Brook	-8680
▁Craig	-8681
▁Glenn	-8682
▁Natal	-8683
▁cliff	-8684
▁rocks	-8685
▁sales	-8686
olutely	-8687
▁Unless	-8688
▁doomed	-8689
▁genres	-8690
▁throat	-8691
▁titled	-8692
▁artific	-8693
▁reaches	-8694
▁secrets	-8695
▁arrested	-8696
▁narrator	-8697
▁parallel	-8698
▁subtlety	-8699
▁Cinderella	-8700
▁frustrating	-8701
Act	-8702
▁Ju	-8703
▁Tob	-8704
▁ack	-8705
▁bog	-8706
▁fro	-8707
▁tie	-8708
itled	-8709
never	-8710
works	-8711
▁Hunt	-8712
▁Hust	-8713
▁Mann	-8714
▁foul	-8715
▁frag	-8716
▁publ	-8717
▁stro	-8718
▁Point	-8719
▁aging	-8720
▁coffee	-8721
▁darker	-8722
▁insert	-8723
▁misses	-8724
▁suspic	-8725
▁Imagine	-8726
▁Monster	-8727
▁absence	-8728
▁encoura	-8729
▁existed	-8730
▁kitchen	-8731
▁notably	-8732
▁Massacre	-8733
▁coherent	-8734
▁sacrific	-8735
▁lifestyle	-8736
▁notorious	-8737
▁producing	-8738
▁afterwards	-8739
▁simplistic	-8740
▁captivating	-8741
▁politically	-8742
Com	-8743
ika	-8744
▁ho	-8745
elli	-8746
vity	-8747
▁bin	-8748
entin	-8749
itual	-8750
stars	-8751
▁Dill	-8752
▁odds	-8753
▁wrap	-8754
▁pants	-8755
▁satir	-8756
▁Jeremy	-8757
▁models	-8758
▁strike	-8759
▁digital	-8760
▁illegal	-8761
▁arrogant	-8762
▁clothing	-8763
▁enormous	-8764
▁inventive	-8765
▁newspaper	-8766
▁psychotic	-8767
▁philosophy	-8768
▁stereotype	-8769
▁distracting	-8770
▁unbelievably	-8771
4.	-8772
rip	-8773
▁ax	-8774
HING	-8775
aith	-8776
comp	-8777
eder	-8778
shot	-8779
▁Squ	-8780
▁sag	-8781
estic	-8782
verty	-8783
▁Nice	-8784
▁Shir	-8785
▁slim	-8786
makers	-8787
▁Block	-8788
▁Derek	-8789
▁EVERY	-8790
▁Mario	-8791
▁cards	-8792
▁noble	-8793
▁trade	-8794
▁Spring	-8795
▁acknow	-8796
▁handed	-8797
▁incest	-8798
▁passes	-8799
▁solely	-8800
▁Branagh	-8801
▁acclaim	-8802
▁cameras	-8803
▁funeral	-8804
▁poverty	-8805
▁unfolds	-8806
▁imagined	-8807
▁establish	-8808
▁succeeded	-8809
▁conspiracy	-8810
▁convoluted	-8811
▁explaining	-8812
▁psychiatrist	-8813
Ge	-8814
otte	-8815
▁Tal	-8816
▁cup	-8817
icking	-8818
▁Years	-8819
▁filth	-8820
warming	-8821
▁Julian	-8822
▁clumsy	-8823
▁notion	-8824
▁silver	-8825
▁Sandler	-8826
▁buddies	-8827
▁catches	-8828
▁chances	-8829
▁depicts	-8830
▁exposed	-8831
▁highest	-8832
▁planned	-8833
▁describes	-8834
▁explosion	-8835
▁trademark	-8836
▁introduces	-8837
Av	-8838
lan	-8839
esis	-8840
irts	-8841
▁Dom	-8842
▁Fat	-8843
child	-8844
isten	-8845
mares	-8846
▁Bald	-8847
▁Buck	-8848
▁Duke	-8849
▁grab	-8850
▁lake	-8851
ipment	-8852
▁Apart	-8853
▁Burns	-8854
▁conve	-8855
▁porno	-8856
▁recru	-8857
▁thief	-8858
ciating	-8859
▁comics	-8860
▁french	-8861
▁spaces	-8862
aneously	-8863
▁smoking	-8864
▁synopsis	-8865
▁depressed	-8866
▁provoking	-8867
')	-8868
8,	-8869
8.	-8870
El	-8871
En	-8872
ONG	-8873
eps	-8874
▁Nin	-8875
▁asp	-8876
andra	-8877
inder	-8878
uable	-8879
▁Fant	-8880
▁Grey	-8881
▁Robb	-8882
▁dust	-8883
▁pays	-8884
▁cabin	-8885
▁climb	-8886
▁fatal	-8887
▁monot	-8888
▁stone	-8889
▁Summer	-8890
▁poetry	-8891
▁scheme	-8892
▁unsett	-8893
▁blatant	-8894
▁factory	-8895
▁montage	-8896
▁Godfather	-8897
▁thoughtful	-8898
▁countryside	-8899
▁choreography	-8900
hs	-8901
Its	-8902
ril	-8903
▁CD	-8904
▁TR	-8905
"...	-8906
prov	-8907
▁Bett	-8908
▁gall	-8909
▁sarc	-8910
▁oddly	-8911
▁apolog	-8912
▁dozens	-8913
▁fantas	-8914
▁Century	-8915
▁amounts	-8916
▁honesty	-8917
▁Princess	-8918
▁hopeless	-8919
▁misunder	-8920
▁Manhattan	-8921
▁buildings	-8922
▁immensely	-8923
▁sacrifice	-8924
▁secretary	-8925
20	-8926
foot	-8927
▁Din	-8928
▁Set	-8929
▁Sex	-8930
▁wet	-8931
James	-8932
adget	-8933
aware	-8934
great	-8935
▁Boys	-8936
▁Jord	-8937
▁Made	-8938
▁Ruth	-8939
▁carn	-8940
▁cats	-8941
▁clic	-8942
▁fart	-8943
cience	-8944
▁chaos	-8945
Richard	-8946
▁Glover	-8947
▁agreed	-8948
▁estate	-8949
▁Whether	-8950
ruciating	-8951
▁witnessed	-8952
▁consistent	-8953
▁innovative	-8954
▁psychopath	-8955
▁thankfully	-8956
PS	-8957
UM	-8958
la	-8959
▁Mi	-8960
▁agg	-8961
▁mal	-8962
▁saf	-8963
▁ups	-8964
agney	-8965
▁Book	-8966
▁Cong	-8967
▁Hung	-8968
▁bone	-8969
▁impe	-8970
▁Girls	-8971
▁nause	-8972
ctional	-8973
rossing	-8974
▁Turner	-8975
▁adoles	-8976
▁casual	-8977
▁damage	-8978
▁puppet	-8979
ommended	-8980
▁bullets	-8981
▁instant	-8982
▁neglect	-8983
▁primary	-8984
▁shadows	-8985
▁classical	-8986
▁satisfied	-8987
▁wrestling	-8988
60	-8989
▁PR	-8990
odge	-8991
oral	-8992
▁Ian	-8993
isand	-8994
▁Bush	-8995
▁Read	-8996
▁elim	-8997
▁mudd	-8998
Donald	-8999
icient	-9000
ulsive	-9001
▁forms	-9002
▁ocean	-9003
▁overt	-9004
▁tires	-9005
mission	-9006
▁Curtis	-9007
▁robbery	-9008
▁strikes	-9009
▁Hamilton	-9010
▁cannibal	-9011
▁explored	-9012
▁equipment	-9013
▁miserable	-9014
▁constructed	-9015
▁consistently	-9016
▁unintentional	-9017
bow	-9018
lon	-9019
▁BUT	-9020
▁ego	-9021
adine	-9022
eling	-9023
forms	-9024
▁4/10	-9025
▁maid	-9026
▁pray	-9027
▁tame	-9028
verted	-9029
▁Myers	-9030
▁bless	-9031
▁ruins	-9032
▁copies	-9033
▁guitar	-9034
▁snakes	-9035
▁Strange	-9036
▁despair	-9037
▁enemies	-9038
▁smaller	-9039
▁wrapped	-9040
▁Remember	-9041
▁eighties	-9042
▁invisible	-9043
▁terrorists	-9044
▁blockbuster	-9045
Te	-9046
cio	-9047
ggy	-9048
olor	-9049
▁Lum	-9050
▁Viv	-9051
fined	-9052
sycho	-9053
▁Falk	-9054
▁ears	-9055
▁Damme	-9056
▁Frost	-9057
▁GREAT	-9058
▁Vegas	-9059
▁Alfred	-9060
▁Bourne	-9061
▁agrees	-9062
▁relent	-9063
izations	-9064
▁shortly	-9065
▁stellar	-9066
▁wannabe	-9067
▁cheating	-9068
▁maintain	-9069
iour	-9070
▁Bab	-9071
▁WAS	-9072
lands	-9073
▁Macy	-9074
▁Rita	-9075
▁Shaw	-9076
▁glor	-9077
▁wine	-9078
master	-9079
ribute	-9080
▁Chase	-9081
▁exhib	-9082
▁hates	-9083
ensions	-9084
▁Martha	-9085
▁defeat	-9086
▁exotic	-9087
▁fooled	-9088
▁irrele	-9089
▁scores	-9090
▁uneven	-9091
▁burning	-9092
▁dynamic	-9093
▁failing	-9094
▁justify	-9095
▁workers	-9096
▁purchase	-9097
ploitation	-9098
▁financial	-9099
▁convincingly	-9100
▁responsibility	-9101
Too	-9102
▁2)	-9103
burn	-9104
okey	-9105
▁Bak	-9106
▁Cox	-9107
▁Eva	-9108
▁awe	-9109
ighty	-9110
▁Hack	-9111
▁jazz	-9112
▁tail	-9113
▁urge	-9114
▁util	-9115
▁Miyaz	-9116
▁instr	-9117
▁loads	-9118
▁Norris	-9119
▁detect	-9120
▁grotes	-9121
▁settle	-9122
▁styles	-9123
▁archite	-9124
▁illness	-9125
▁monolog	-9126
▁website	-9127
▁Scarlett	-9128
▁composed	-9129
▁teaching	-9130
▁Certainly	-9131
▁considerable	-9132
▁similarities	-9133
Su	-9134
Int	-9135
THE	-9136
▁RE	-9137
▁UN	-9138
then	-9139
▁Say	-9140
▁bes	-9141
▁ech	-9142
▁Band	-9143
▁boun	-9144
▁pale	-9145
▁Aside	-9146
▁Terry	-9147
▁rooms	-9148
▁shine	-9149
perfect	-9150
▁advise	-9151
▁rebell	-9152
!!!!!!!!	-9153
▁Stevens	-9154
▁crucial	-9155
▁endings	-9156
▁exploit	-9157
▁emphasis	-9158
▁homeless	-9159
▁Eventually	-9160
▁unoriginal	-9161
▁alternative	-9162
▁resemblance	-9163
fle	-9164
shi	-9165
▁Ep	-9166
▁gro	-9167
assed	-9168
white	-9169
▁Fall	-9170
▁Gand	-9171
▁Hist	-9172
▁REAL	-9173
▁gest	-9174
▁Dirty	-9175
▁Spike	-9176
▁album	-9177
▁hence	-9178
▁inane	-9179
▁props	-9180
▁resur	-9181
▁shelf	-9182
▁south	-9183
ivalent	-9184
leading	-9185
ossibly	-9186
▁Cagney	-9187
▁Nicole	-9188
▁bottle	-9189
▁enjoys	-9190
▁suited	-9191
▁useful	-9192
▁Florida	-9193
▁Profess	-9194
▁beneath	-9195
▁diamond	-9196
▁nervous	-9197
▁Sullivan	-9198
▁adequate	-9199
▁regardless	-9200
▁excruciating	-9201
▁International	-9202
Ed	-9203
God	-9204
gle	-9205
▁Py	-9206
▁Pam	-9207
▁sab	-9208
gling	-9209
▁Cold	-9210
▁alle	-9211
▁tank	-9212
▁user	-9213
▁intim	-9214
▁Stooges	-9215
▁silence	-9216
▁trained	-9217
▁survived	-9218
▁displayed	-9219
▁recording	-9220
▁passionate	-9221
▁nevertheless	-9222
▁transformation	-9223
4)	-9224
8)	-9225
(..	-9226
llo	-9227
acts	-9228
▁Ker	-9229
▁Stu	-9230
▁dys	-9231
▁voy	-9232
about	-9233
nered	-9234
▁Luck	-9235
▁blur	-9236
▁Bette	-9237
▁Garbo	-9238
▁Keith	-9239
▁State	-9240
▁snake	-9241
▁stabb	-9242
▁tends	-9243
▁Muslim	-9244
▁transp	-9245
▁vulgar	-9246
ographed	-9247
▁Children	-9248
▁conscious	-9249
▁horrifying	-9250
▁mentioning	-9251
▁accompanied	-9252
▁specifically	-9253
▁cinematographer	-9254
aux	-9255
pel	-9256
▁fo	-9257
oked	-9258
▁Bus	-9259
antom	-9260
▁Craw	-9261
▁Crow	-9262
▁Elli	-9263
▁Song	-9264
▁Ward	-9265
▁blew	-9266
annels	-9267
▁Adams	-9268
▁Times	-9269
▁amuse	-9270
▁bears	-9271
▁lackl	-9272
▁Except	-9273
▁instit	-9274
▁partly	-9275
▁prompt	-9276
▁stress	-9277
ifferent	-9278
▁SPOILER	-9279
▁arrived	-9280
▁orchest	-9281
▁Margaret	-9282
▁contrary	-9283
▁downhill	-9284
▁masterful	-9285
▁plausible	-9286
▁creativity	-9287
▁potentially	-9288
▁overwhelming	-9289
ieve	-9290
inne	-9291
▁Amy	-9292
▁Att	-9293
▁Gos	-9294
▁anx	-9295
▁wig	-9296
▁Sing	-9297
▁sits	-9298
bidden	-9299
izable	-9300
▁1970'	-9301
▁Mount	-9302
▁Randy	-9303
▁Sound	-9304
▁persu	-9305
▁trees	-9306
▁Seeing	-9307
▁absent	-9308
▁kicked	-9309
▁monkey	-9310
▁taught	-9311
▁Sheriff	-9312
▁hideous	-9313
▁Honestly	-9314
▁brutally	-9315
▁splatter	-9316
▁subplots	-9317
▁Francisco	-9318
▁Streisand	-9319
▁dinosaurs	-9320
▁overrated	-9321
▁developing	-9322
▁characteristic	-9323
pled	-9324
wind	-9325
▁aid	-9326
▁lav	-9327
amber	-9328
amera	-9329
antee	-9330
cking	-9331
izard	-9332
▁Dawn	-9333
▁Doll	-9334
▁outs	-9335
▁Radio	-9336
▁Roche	-9337
▁exter	-9338
▁stark	-9339
▁Atlant	-9340
▁cliche	-9341
umentary	-9342
▁cheated	-9343
▁divorce	-9344
▁painted	-9345
▁focusing	-9346
▁companion	-9347
▁progresses	-9348
▁disappeared	-9349
▁philosophical	-9350
La	-9351
..<	-9352
ARD	-9353
ori	-9354
▁Kr	-9355
▁je	-9356
cult	-9357
free	-9358
rome	-9359
▁Wid	-9360
tends	-9361
▁Oper	-9362
▁Pick	-9363
ceived	-9364
itanic	-9365
worthy	-9366
▁drops	-9367
▁hench	-9368
▁paran	-9369
attered	-9370
▁Hamlet	-9371
▁writes	-9372
▁Shirley	-9373
▁classes	-9374
▁directs	-9375
▁guessed	-9376
▁parties	-9377
▁portion	-9378
▁citizens	-9379
▁distingu	-9380
▁helpless	-9381
▁unsatisf	-9382
ropriately	-9383
▁Nicholson	-9384
▁nostalgia	-9385
▁Cassavetes	-9386
"!	-9387
9)	-9388
ksh	-9389
▁RO	-9390
High	-9391
club	-9392
uaid	-9393
▁Age	-9394
▁Gib	-9395
▁Gre	-9396
▁tea	-9397
funny	-9398
oured	-9399
owski	-9400
▁doct	-9401
▁prec	-9402
▁priv	-9403
everal	-9404
headed	-9405
ivable	-9406
▁Mason	-9407
▁campa	-9408
spector	-9409
▁Carrie	-9410
▁Davies	-9411
▁Graham	-9412
▁astron	-9413
▁chased	-9414
▁dating	-9415
▁houses	-9416
▁league	-9417
▁resort	-9418
▁strang	-9419
▁abysmal	-9420
▁couples	-9421
▁staring	-9422
▁Miyazaki	-9423
▁adorable	-9424
▁troubles	-9425
▁contained	-9426
▁journalist	-9427
▁underlying	-9428
▁hilariously	-9429
▁ingredients	-9430
▁deliberately	-9431
gate	-9432
ooby	-9433
▁Try	-9434
▁upl	-9435
atics	-9436
▁1/10	-9437
▁Niro	-9438
▁Prot	-9439
▁Year	-9440
▁ease	-9441
▁heat	-9442
▁intr	-9443
urance	-9444
▁Troma	-9445
▁flies	-9446
▁Rating	-9447
▁earned	-9448
▁guests	-9449
▁blowing	-9450
▁desired	-9451
▁glasses	-9452
▁liberal	-9453
▁Garfield	-9454
▁practice	-9455
▁proceeds	-9456
▁formulaic	-9457
▁gangsters	-9458
▁illogical	-9459
▁interrupt	-9460
▁helicopter	-9461
▁irrelevant	-9462
▁reflection	-9463
▁understated	-9464
rer	-9465
▁Od	-9466
eric	-9467
eryl	-9468
onto	-9469
▁McK	-9470
▁Unt	-9471
▁egg	-9472
▁tad	-9473
faced	-9474
pered	-9475
phant	-9476
ugust	-9477
▁3/10	-9478
▁stir	-9479
▁sust	-9480
▁vibr	-9481
▁wore	-9482
▁Ultim	-9483
▁seeks	-9484
▁Custer	-9485
▁Justin	-9486
▁endure	-9487
▁thumbs	-9488
▁treats	-9489
▁wished	-9490
▁Mystery	-9491
▁stilted	-9492
▁channels	-9493
▁exchange	-9494
▁riveting	-9495
▁southern	-9496
▁education	-9497
▁mountains	-9498
▁pretending	-9499
▁advertising	-9500
▁translation	-9501
AST	-9502
yll	-9503
▁35	-9504
▁SP	-9505
bird	-9506
name	-9507
rell	-9508
▁arc	-9509
acies	-9510
icism	-9511
▁whim	-9512
▁Miles	-9513
▁Sheen	-9514
▁shake	-9515
▁poetic	-9516
thriller	-9517
▁puppets	-9518
▁Robinson	-9519
▁suitable	-9520
▁fundament	-9521
▁rendition	-9522
▁suggested	-9523
▁unsettling	-9524
,<	-9525
Che	-9526
▁ya	-9527
esty	-9528
ylan	-9529
▁Hop	-9530
▁MTV	-9531
▁ram	-9532
▁wow	-9533
andon	-9534
anges	-9535
ierre	-9536
oples	-9537
ricia	-9538
▁Gore	-9539
▁STAR	-9540
ousing	-9541
▁Edgar	-9542
▁Given	-9543
▁Perry	-9544
▁fought	-9545
▁Baldwin	-9546
▁fighter	-9547
▁matches	-9548
▁schlock	-9549
▁sincere	-9550
conscious	-9551
▁intimate	-9552
▁guarantee	-9553
▁conditions	-9554
▁nightmares	-9555
lik	-9556
pre	-9557
was	-9558
▁ce	-9559
▁ow	-9560
quel	-9561
▁Ext	-9562
▁lip	-9563
▁pad	-9564
▁wis	-9565
arson	-9566
human	-9567
▁(195	-9568
▁Deep	-9569
▁Marc	-9570
▁plat	-9571
▁sung	-9572
strong	-9573
▁Hills	-9574
▁alter	-9575
▁Buster	-9576
▁Huston	-9577
▁Watson	-9578
▁divers	-9579
▁sleaze	-9580
▁trashy	-9581
▁Bronson	-9582
▁Karloff	-9583
▁NOTHING	-9584
▁Crawford	-9585
▁borrowed	-9586
▁inferior	-9587
▁patients	-9588
▁alongside	-9589
▁attitudes	-9590
▁principal	-9591
▁undoubtedly	-9592
▁embarrassment	-9593
IP	-9594
fu	-9595
-19	-9596
Dan	-9597
ORE	-9598
arts	-9599
▁Abb	-9600
▁Mah	-9601
▁Mas	-9602
isons	-9603
▁Spir	-9604
▁Town	-9605
▁mile	-9606
▁Elvis	-9607
▁Final	-9608
▁recyc	-9609
▁Brazil	-9610
▁Castle	-9611
▁joined	-9612
▁avoided	-9613
▁drawing	-9614
▁wounded	-9615
▁yelling	-9616
▁prisoner	-9617
▁Carradine	-9618
▁laughably	-9619
▁corruption	-9620
▁frustration	-9621
40	-9622
Spe	-9623
▁Ba	-9624
arer	-9625
both	-9626
ffic	-9627
pion	-9628
▁/>7	-9629
▁Aff	-9630
▁Kap	-9631
▁Pin	-9632
▁lun	-9633
▁Walt	-9634
▁lips	-9635
▁reck	-9636
ompson	-9637
▁Price	-9638
▁Tyler	-9639
▁Woods	-9640
▁forty	-9641
▁optim	-9642
venture	-9643
▁Corman	-9644
▁Lemmon	-9645
▁Nobody	-9646
▁Scream	-9647
▁phrase	-9648
▁ritual	-9649
▁rolled	-9650
▁contrad	-9651
▁mankind	-9652
▁weakest	-9653
▁Southern	-9654
▁remained	-9655
▁conceived	-9656
▁grotesque	-9657
▁marketing	-9658
▁inappropriate	-9659
▁revolutionary	-9660
Em	-9661
ala	-9662
len	-9663
▁Kn	-9664
▁Op	-9665
hile	-9666
uffy	-9667
ypse	-9668
ysis	-9669
▁Bow	-9670
▁Eli	-9671
▁LOT	-9672
▁Syl	-9673
▁Tam	-9674
aping	-9675
hetti	-9676
▁Doug	-9677
▁Road	-9678
▁Supp	-9679
▁adul	-9680
▁rage	-9681
▁Bible	-9682
▁Felix	-9683
▁Short	-9684
▁Worst	-9685
▁ninja	-9686
SPOILER	-9687
▁Marion	-9688
▁ensues	-9689
ocalypse	-9690
▁compens	-9691
▁topless	-9692
▁trailers	-9693
▁Throughout	-9694
▁challenging	-9695
▁motivations	-9696
▁possibilities	-9697
Or	-9698
Hey	-9699
fan	-9700
idy	-9701
▁Ali	-9702
▁Han	-9703
▁Joy	-9704
House	-9705
THING	-9706
agues	-9707
iners	-9708
▁Iraq	-9709
▁excl	-9710
▁mund	-9711
ixties	-9712
▁Based	-9713
▁Spain	-9714
charact	-9715
plicity	-9716
▁behave	-9717
▁condem	-9718
▁lowest	-9719
▁beliefs	-9720
astically	-9721
▁contempl	-9722
▁promises	-9723
▁capturing	-9724
▁comparing	-9725
▁backgrounds	-9726
▁dimensional	-9727
▁incompetent	-9728
AA	-9729
obs	-9730
ersh	-9731
urai	-9732
▁Var	-9733
actor	-9734
ellig	-9735
maker	-9736
▁Auss	-9737
▁Isab	-9738
▁Live	-9739
▁dile	-9740
▁plod	-9741
▁tact	-9742
Second	-9743
▁*****	-9744
▁Domin	-9745
▁hints	-9746
▁jewel	-9747
▁legal	-9748
▁legit	-9749
▁sappy	-9750
▁tripe	-9751
▁Waters	-9752
▁custom	-9753
▁warmth	-9754
▁worlds	-9755
▁closest	-9756
▁Interest	-9757
▁Thompson	-9758
▁frequent	-9759
▁purposes	-9760
▁remarkably	-9761
▁Fortunately	-9762
▁desperation	-9763
Dr	-9764
!!<	-9765
ifi	-9766
▁Ca	-9767
!!!<	-9768
born	-9769
▁WAR	-9770
break	-9771
check	-9772
▁Holl	-9773
▁Plot	-9774
▁flop	-9775
▁pops	-9776
imagin	-9777
▁Boris	-9778
▁bonus	-9779
▁buffs	-9780
▁cheek	-9781
▁coast	-9782
▁newly	-9783
▁pride	-9784
▁slave	-9785
▁Commun	-9786
▁Middle	-9787
▁exquis	-9788
▁hypnot	-9789
▁outfit	-9790
▁senses	-9791
▁waited	-9792
▁Granted	-9793
▁convent	-9794
▁pushing	-9795
▁reunion	-9796
▁floating	-9797
▁artificial	-9798
▁nomination	-9799
▁transition	-9800
▁understandable	-9801
da	-9802
ATE	-9803
▁SN	-9804
essa	-9805
ints	-9806
orse	-9807
sect	-9808
will	-9809
▁Daw	-9810
▁pub	-9811
▁ren	-9812
arity	-9813
creen	-9814
▁Half	-9815
▁Jews	-9816
▁Line	-9817
▁alas	-9818
▁buck	-9819
▁icon	-9820
▁gloss	-9821
▁spoke	-9822
▁Newman	-9823
▁Valent	-9824
▁awhile	-9825
▁candid	-9826
▁dysfun	-9827
▁simult	-9828
▁unexpl	-9829
▁careful	-9830
▁travest	-9831
▁relation	-9832
▁solution	-9833
▁viewings	-9834
▁authority	-9835
▁behaviour	-9836
▁survivors	-9837
▁popularity	-9838
▁presumably	-9839
ALL	-9840
Ang	-9841
▁gh	-9842
)...	-9843
Look	-9844
ixon	-9845
ripp	-9846
▁Cart	-9847
▁Morm	-9848
▁Scot	-9849
▁dism	-9850
ifully	-9851
itable	-9852
▁eaten	-9853
▁flood	-9854
▁hesit	-9855
▁hyper	-9856
▁photo	-9857
▁thugs	-9858
ensical	-9859
iceless	-9860
▁Harvey	-9861
▁Return	-9862
▁assemb	-9863
▁banned	-9864
▁faster	-9865
▁faults	-9866
▁refuge	-9867
▁Jeffrey	-9868
▁minimum	-9869
▁incorpor	-9870
▁instinct	-9871
▁swimming	-9872
▁nostalgic	-9873
▁purchased	-9874
hum	-9875
oto	-9876
ayed	-9877
unts	-9878
▁Bay	-9879
▁Lar	-9880
▁aka	-9881
Great	-9882
overn	-9883
stage	-9884
▁Kids	-9885
▁code	-9886
▁glim	-9887
▁Actor	-9888
▁Leigh	-9889
▁tribe	-9890
Perhaps	-9891
▁Craven	-9892
▁dreary	-9893
▁intric	-9894
▁undert	-9895
austroph	-9896
▁Bullock	-9897
▁Phillip	-9898
▁claimed	-9899
▁granted	-9900
oneliness	-9901
▁Predator	-9902
▁showcase	-9903
▁climactic	-9904
▁depicting	-9905
▁yesterday	-9906
▁equivalent	-9907
▁vulnerable	-9908
▁appreciation	-9909
dis	-9910
har	-9911
▁7.	-9912
▁MY	-9913
ccer	-9914
make	-9915
mill	-9916
▁/>3	-9917
▁Ass	-9918
▁DON	-9919
▁Pur	-9920
▁	-9921
e	-9922
t	-9923
a	-9924
o	-9925
i	-9926
s	-9927
n	-9928
r	-9929
h	-9930
l	-9931
d	-9932
c	-9933
u	-9934
m	-9935
f	-9936
y	-9937
g	-9938
w	-9939
b	-9940
p	-9941
.	-9942
v	-9943
,	-9944
k	-9945
I	-9946
'	-9947
T	-9948
/	-9949
>	-9950
<	-9951
-	-9952
"	-9953
A	-9954
S	-9955
B	-9956
x	-9957
M	-9958
H	-9959
C	-9960
D	-9961
j	-9962
)	-9963
W	-9964
(	-9965
E	-9966
R	-9967
L	-9968
O	-9969
N	-9970
P	-9971
!	-9972
F	-9973
G	-9974
J	-9975
z	-9976
0	-9977
q	-9978
1	-9979
?	-9980
V	-9981
K	-9982
Y	-9983
:	-9984
9	-9985
U	-9986
2	-9987
*	-9988
;	-9989
3	-9990
5	-9991
8	-9992
4	-9993
7	-9994
&	-9995
6	-9996
